{
  "version": "1.0",
  "truncation": null,
  "padding": null,
  "added_tokens": [
    {
      "id": 0,
      "content": "[UNK]",
      "single_word": false,
      "lstrip": false,
      "rstrip": false,
      "normalized": false,
      "special": true
    },
    {
      "id": 1,
      "content": "[PAD]",
      "single_word": false,
      "lstrip": false,
      "rstrip": false,
      "normalized": false,
      "special": true
    }
  ],
  "normalizer": null,
  "pre_tokenizer": {
    "type": "Whitespace"
  },
  "post_processor": null,
  "decoder": null,
  "model": {
    "type": "BPE",
    "dropout": null,
    "unk_token": "[UNK]",
    "continuing_subword_prefix": "_",
    "end_of_word_suffix": "__",
    "fuse_unk": false,
    "byte_fallback": false,
    "ignore_merges": false,
    "vocab": {
      "[UNK]": 0,
      "[PAD]": 1,
      "!": 2,
      "\"": 3,
      "$": 4,
      "%": 5,
      "&": 6,
      "'": 7,
      "(": 8,
      "*": 9,
      ",": 10,
      "-": 11,
      ".": 12,
      "/": 13,
      "0": 14,
      "1": 15,
      "2": 16,
      "3": 17,
      "4": 18,
      "5": 19,
      "6": 20,
      "7": 21,
      "8": 22,
      "9": 23,
      ":": 24,
      ";": 25,
      "?": 26,
      "A": 27,
      "B": 28,
      "C": 29,
      "D": 30,
      "E": 31,
      "F": 32,
      "G": 33,
      "H": 34,
      "I": 35,
      "J": 36,
      "K": 37,
      "L": 38,
      "M": 39,
      "N": 40,
      "O": 41,
      "P": 42,
      "Q": 43,
      "R": 44,
      "S": 45,
      "T": 46,
      "U": 47,
      "V": 48,
      "W": 49,
      "X": 50,
      "Y": 51,
      "Z": 52,
      "[": 53,
      "]": 54,
      "a": 55,
      "b": 56,
      "c": 57,
      "d": 58,
      "e": 59,
      "f": 60,
      "g": 61,
      "h": 62,
      "i": 63,
      "j": 64,
      "k": 65,
      "l": 66,
      "m": 67,
      "n": 68,
      "o": 69,
      "p": 70,
      "q": 71,
      "r": 72,
      "s": 73,
      "t": 74,
      "u": 75,
      "v": 76,
      "w": 77,
      "x": 78,
      "y": 79,
      "z": 80,
      "é": 81,
      "ó": 82,
      "–": 83,
      "—": 84,
      "‘": 85,
      "’": 86,
      "“": 87,
      "”": 88,
      "…": 89,
      "_e": 90,
      "_c": 91,
      "_l": 92,
      "_a": 93,
      "_r": 94,
      "_e__": 95,
      "_n__": 96,
      "_u": 97,
      "_t": 98,
      "_l__": 99,
      "_i": 100,
      "_n": 101,
      "_k__": 102,
      "_y__": 103,
      "_s": 104,
      "_h": 105,
      "_r__": 106,
      "_d__": 107,
      "_t__": 108,
      "_o": 109,
      "_g": 110,
      "_a__": 111,
      "_m": 112,
      "_p": 113,
      "_h__": 114,
      "_s__": 115,
      "_v": 116,
      "_x": 117,
      "_5": 118,
      "_5__": 119,
      "_g__": 120,
      "_d": 121,
      "_,__": 122,
      "_p__": 123,
      "_w__": 124,
      "_m__": 125,
      "_f__": 126,
      "_w": 127,
      "_k": 128,
      "_f": 129,
      "_y": 130,
      "N__": 131,
      "_b": 132,
      "_!__": 133,
      "_i__": 134,
      "]__": 135,
      "_z": 136,
      "_D__": 137,
      "_z__": 138,
      "_7__": 139,
      "_!": 140,
      "_x__": 141,
      "_P": 142,
      "5__": 143,
      "_o__": 144,
      "_u__": 145,
      "_.": 146,
      "_c__": 147,
      "_q": 148,
      "_X": 149,
      "_R": 150,
      "_K__": 151,
      "_B": 152,
      "_S__": 153,
      "_0__": 154,
      "_O": 155,
      "_M": 156,
      "_E__": 157,
      "_b__": 158,
      "_9": 159,
      "_8": 160,
      "_9__": 161,
      "‘__": 162,
      "g__": 163,
      "_\"__": 164,
      "_”__": 165,
      "_j": 166,
      "_'__": 167,
      "_2": 168,
      "_0": 169,
      "n__": 170,
      "…__": 171,
      "_…__": 172,
      "_C": 173,
      "_R__": 174,
      "M__": 175,
      ",__": 176,
      "_8__": 177,
      "_’__": 178,
      "B__": 179,
      "_D": 180,
      "_6__": 181,
      "R__": 182,
      "_:__": 183,
      "_?": 184,
      "_1__": 185,
      "_O__": 186,
      "“__": 187,
      "_?__": 188,
      "'__": 189,
      "U__": 190,
      "o__": 191,
      "6__": 192,
      "H__": 193,
      "_H__": 194,
      "_—__": 195,
      "c__": 196,
      "_V__": 197,
      "a__": 198,
      "_N": 199,
      ";__": 200,
      "_T": 201,
      "_M__": 202,
      "_1": 203,
      "L__": 204,
      "s__": 205,
      "_-__": 206,
      "_4__": 207,
      "_.__": 208,
      "_3__": 209,
      "_U": 210,
      "t__": 211,
      "_N__": 212,
      "/__": 213,
      "_I__": 214,
      "_2__": 215,
      "A__": 216,
      "j__": 217,
      "m__": 218,
      ":__": 219,
      "K__": 220,
      "4__": 221,
      "_3": 222,
      "b__": 223,
      "[__": 224,
      "—__": 225,
      "_j__": 226,
      "_E": 227,
      "_T__": 228,
      "_I": 229,
      "_S": 230,
      "_A": 231,
      "_G": 232,
      "9__": 233,
      "_é__": 234,
      "?__": 235,
      "_4": 236,
      "_v__": 237,
      "_K": 238,
      "G__": 239,
      "P__": 240,
      ".__": 241,
      "-__": 242,
      "8__": 243,
      "_Y__": 244,
      "d__": 245,
      "$__": 246,
      "–__": 247,
      "_Y": 248,
      "_U__": 249,
      "_F": 250,
      "_L": 251,
      "7__": 252,
      "_\"": 253,
      "_é": 254,
      "2__": 255,
      "Y__": 256,
      "O__": 257,
      "’__": 258,
      "_V": 259,
      "F__": 260,
      "_'": 261,
      "&__": 262,
      "\"__": 263,
      "1__": 264,
      "_P__": 265,
      "T__": 266,
      "I__": 267,
      "_W": 268,
      "_7": 269,
      "*__": 270,
      "y__": 271,
      "_L__": 272,
      "C__": 273,
      "!__": 274,
      "3__": 275,
      "_ó": 276,
      "(__": 277,
      "S__": 278,
      "D__": 279,
      "_A__": 280,
      "%__": 281,
      "e__": 282,
      "E__": 283,
      "_B__": 284,
      "J__": 285,
      "th": 286,
      "_ou__": 287,
      "_in": 288,
      "you__": 289,
      "_at__": 290,
      "_ea": 291,
      "_ing__": 292,
      "_ou": 293,
      "_re__": 294,
      "the__": 295,
      "_er__": 296,
      "_ll__": 297,
      "to__": 298,
      "_ow__": 299,
      "_nd__": 300,
      "_an": 301,
      "it__": 302,
      "_on": 303,
      "_ay__": 304,
      "_hat__": 305,
      "that__": 306,
      "_ey__": 307,
      "_st__": 308,
      "ha": 309,
      "_ve__": 310,
      "_oo": 311,
      "_ed__": 312,
      "Oh__": 313,
      "_ere__": 314,
      "_en__": 315,
      "and__": 316,
      "_om": 317,
      "_it": 318,
      "_ot__": 319,
      "_ll": 320,
      "kn": 321,
      "_on__": 322,
      "_ut__": 323,
      "_gh": 324,
      "_is__": 325,
      "_an__": 326,
      "_er": 327,
      "_or": 328,
      "know__": 329,
      "_ght__": 330,
      "_ell__": 331,
      "_es__": 332,
      "_et__": 333,
      "_se__": 334,
      "_ust__": 335,
      "me__": 336,
      "_ic": 337,
      "is__": 338,
      "wa": 339,
      "_ight__": 340,
      "_ar": 341,
      "_ke__": 342,
      "_kay__": 343,
      "_eah__": 344,
      "_th": 345,
      "_ac": 346,
      "of__": 347,
      "_en": 348,
      "just__": 349,
      "this__": 350,
      "in__": 351,
      "we__": 352,
      "_le__": 353,
      "my__": 354,
      "_ld__": 355,
      "You__": 356,
      "wh": 357,
      "be": 358,
      "re__": 359,
      "_or__": 360,
      "have__": 361,
      "li": 362,
      "st": 363,
      "_lly__": 364,
      "sh": 365,
      "Th": 366,
      "No__": 367,
      "Yeah__": 368,
      "_re": 369,
      "what__": 370,
      "Okay__": 371,
      "don__": 372,
      "on__": 373,
      "do__": 374,
      "_na__": 375,
      "can__": 376,
      "_st": 377,
      "_at": 378,
      "for__": 379,
      "was__": 380,
      "Hey__": 381,
      "wit": 382,
      "What__": 383,
      "_ee": 384,
      "not__": 385,
      "_ss__": 386,
      "with__": 387,
      "be__": 388,
      "_ould__": 389,
      "_our__": 390,
      "right__": 391,
      "_ome__": 392,
      "are__": 393,
      "_id__": 394,
      "Well__": 395,
      "so__": 396,
      "thin": 397,
      "no__": 398,
      "wan": 399,
      "rea": 400,
      "do": 401,
      "_ri": 402,
      "_ro": 403,
      "gon": 404,
      "se": 405,
      "your__": 406,
      "gonna__": 407,
      "gu": 408,
      "ab": 409,
      "on": 410,
      "_out__": 411,
      "like__": 412,
      "_ry__": 413,
      "_el": 414,
      "go__": 415,
      "out__": 416,
      "he__": 417,
      "..": 418,
      "get__": 419,
      "_me__": 420,
      "here__": 421,
      "_ir": 422,
      "_ook__": 423,
      "to": 424,
      "about__": 425,
      "_tt": 426,
      "ma": 427,
      "It__": 428,
      "_ver__": 429,
      "_id": 430,
      "there__": 431,
      "up__": 432,
      "Wh": 433,
      "ne": 434,
      "think__": 435,
      "_pp": 436,
      "go": 437,
      "ca": 438,
      "ta": 439,
      "all__": 440,
      "an": 441,
      "ll__": 442,
      "but__": 443,
      "...__": 444,
      "So__": 445,
      "_thing__": 446,
      "_in__": 447,
      "hi": 448,
      "?!__": 449,
      "That__": 450,
      "mea": 451,
      "pl": 452,
      "sa": 453,
      "her__": 454,
      "_ys__": 455,
      "_king__": 456,
      "And__": 457,
      "_ly__": 458,
      "_ch__": 459,
      "really__": 460,
      "at__": 461,
      "_ec": 462,
      "one__": 463,
      "got__": 464,
      "su": 465,
      "_ts__": 466,
      "she__": 467,
      "Ro": 468,
      "mean__": 469,
      "Jo": 470,
      "_and": 471,
      "_au": 472,
      "_ther__": 473,
      "_ood__": 474,
      "_ill__": 475,
      "if__": 476,
      "_ome": 477,
      "lo": 478,
      "_be__": 479,
      "_it__": 480,
      "_orry__": 481,
      "Ross__": 482,
      "ch": 483,
      "they__": 484,
      "ba": 485,
      "_ra": 486,
      "Ph": 487,
      "ve__": 488,
      "him__": 489,
      "some": 490,
      "uh__": 491,
      "_dy__": 492,
      "Ch": 493,
      "_ent__": 494,
      "mo": 495,
      "_ti": 496,
      "want__": 497,
      "Go": 498,
      "_ks__": 499,
      "All__": 500,
      "_em": 501,
      "see__": 502,
      "God__": 503,
      "the": 504,
      "Joey__": 505,
      "in": 506,
      "now__": 507,
      "_ss": 508,
      "_mm__": 509,
      "_ur": 510,
      "_one__": 511,
      "We__": 512,
      "_li": 513,
      "ev": 514,
      "ti": 515,
      "tell__": 516,
      "_ack__": 517,
      "_reat__": 518,
      "Rac": 519,
      "_ine__": 520,
      "_ally__": 521,
      "how__": 522,
      "sorry__": 523,
      "look__": 524,
      "_itt": 525,
      "wor": 526,
      "okay__": 527,
      "_ause__": 528,
      "_el__": 529,
      "_ell": 530,
      "did__": 531,
      "guys__": 532,
      "But__": 533,
      "!!__": 534,
      "_un": 535,
      "_ff__": 536,
      "_ice__": 537,
      "_op": 538,
      "going__": 539,
      "_ce__": 540,
      "good__": 541,
      "yeah__": 542,
      "_ive__": 543,
      "Hi__": 544,
      "any": 545,
      "_andl": 546,
      "Mon": 547,
      "un": 548,
      "time__": 549,
      "when__": 550,
      "could__": 551,
      "would__": 552,
      "_ut": 553,
      "some__": 554,
      "back__": 555,
      "Than": 556,
      "were__": 557,
      "_es": 558,
      "_ct": 559,
      "_ate__": 560,
      "Chandl": 561,
      "Chandler__": 562,
      "come__": 563,
      "_ittle__": 564,
      "great__": 565,
      "_gh__": 566,
      "_ked__": 567,
      "al": 568,
      "too__": 569,
      "_al__": 570,
      "_ds__": 571,
      "had__": 572,
      "little__": 573,
      "_wn__": 574,
      "then__": 575,
      "_ica__": 576,
      "happ": 577,
      "say__": 578,
      "_hh__": 579,
      "_oe": 580,
      "love__": 581,
      "Uh__": 582,
      "_is": 583,
      "been__": 584,
      "_ge__": 585,
      "_ery__": 586,
      "tal": 587,
      "mu": 588,
      "_ear__": 589,
      "_idn__": 590,
      "something__": 591,
      "Monica__": 592,
      "Yes__": 593,
      "sp": 594,
      "_hel__": 595,
      "Rachel__": 596,
      "didn__": 597,
      "_ion__": 598,
      "_ding__": 599,
      "_ear": 600,
      "guy__": 601,
      "Phoe": 602,
      "com": 603,
      "_rea": 604,
      "stu": 605,
      "How__": 606,
      "bu": 607,
      "Phoebe__": 608,
      "fa": 609,
      "_ga": 610,
      "_ying__": 611,
      "_ick__": 612,
      "well__": 613,
      "should__": 614,
      "_uh__": 615,
      "who__": 616,
      "He__": 617,
      "_ore__": 618,
      "_ind__": 619,
      "as__": 620,
      "_lo": 621,
      "bec": 622,
      "la": 623,
      "Look__": 624,
      "_ch": 625,
      "_la": 626,
      "an__": 627,
      "cou": 628,
      "_ter__": 629,
      "_ble__": 630,
      "This__": 631,
      "let__": 632,
      "over__": 633,
      "wanna__": 634,
      "Why__": 635,
      "_ving__": 636,
      "_rom__": 637,
      "mar": 638,
      "_est": 639,
      "_th__": 640,
      "_de__": 641,
      "_ff": 642,
      "because__": 643,
      "bo": 644,
      "_ist": 645,
      "tw": 646,
      "_gs__": 647,
      "thou": 648,
      "_ong__": 649,
      "The__": 650,
      "them__": 651,
      "from__": 652,
      "make__": 653,
      "his__": 654,
      "_bo": 655,
      "doing__": 656,
      "am__": 657,
      "said__": 658,
      "Sh": 659,
      "_ease__": 660,
      "why__": 661,
      "_ess__": 662,
      "_ld": 663,
      "_art": 664,
      "na": 665,
      "or__": 666,
      "_rou": 667,
      "thing__": 668,
      "co": 669,
      "us__": 670,
      "pe": 671,
      "as": 672,
      "fri": 673,
      "pro": 674,
      "_ybe__": 675,
      "_ople__": 676,
      "fee": 677,
      "pre": 678,
      "aga": 679,
      "_end__": 680,
      "never__": 681,
      "int": 682,
      "people__": 683,
      "will__": 684,
      "take__": 685,
      "much__": 686,
      "gir": 687,
      "_bs__": 688,
      "_ace__": 689,
      "_ctu": 690,
      "ex": 691,
      "sw": 692,
      "down__": 693,
      "bi": 694,
      "hey__": 695,
      "huh__": 696,
      "ou": 697,
      "off__": 698,
      "_ber__": 699,
      "_oom__": 700,
      "_ery": 701,
      "_body__": 702,
      "again__": 703,
      "Now__": 704,
      "we": 705,
      "_ef": 706,
      "_um": 707,
      "_ure__": 708,
      "still__": 709,
      "two__": 710,
      "oh__": 711,
      "_le": 712,
      "_ow": 713,
      "Rea": 714,
      "fir": 715,
      "tr": 716,
      "way__": 717,
      "_ie__": 718,
      "_oney__": 719,
      "She__": 720,
      "_ctually__": 721,
      "Come__": 722,
      "umm__": 723,
      "_ck__": 724,
      "_op__": 725,
      "wait__": 726,
      "need__": 727,
      "_ldn__": 728,
      "by__": 729,
      "beli": 730,
      "belie": 731,
      "qu": 732,
      "_ett": 733,
      "_ies__": 734,
      "_ose__": 735,
      "bab": 736,
      "en": 737,
      "_eebs__": 738,
      "Pheebs__": 739,
      "believe__": 740,
      "_eep__": 741,
      "our__": 742,
      "_ers__": 743,
      "Thank__": 744,
      "Really__": 745,
      "ho": 746,
      "man__": 747,
      "_ee__": 748,
      "_way__": 749,
      "thought__": 750,
      "first__": 751,
      "Umm__": 752,
      "wom": 753,
      "_ir__": 754,
      "_ried__": 755,
      "_tta__": 756,
      "_ye__": 757,
      "sure__": 758,
      "_ted__": 759,
      "_day__": 760,
      "_ely__": 761,
      "even__": 762,
      "Do__": 763,
      "very__": 764,
      "Wow__": 765,
      "loo": 766,
      "_ew__": 767,
      "_sed__": 768,
      "give__": 769,
      "pa": 770,
      "_sn__": 771,
      "please__": 772,
      "every": 773,
      "fi": 774,
      "_oa__": 775,
      "_ma": 776,
      "_der": 777,
      "prob": 778,
      "no": 779,
      "_sel": 780,
      "_our": 781,
      "_ous__": 782,
      "where__": 783,
      "only__": 784,
      "Ok__": 785,
      "actually__": 786,
      "_ul": 787,
      "_mp": 788,
      "_fore__": 789,
      "has__": 790,
      "before__": 791,
      "gotta__": 792,
      "work__": 793,
      "stuff__": 794,
      "St": 795,
      "con": 796,
      "di": 797,
      "other__": 798,
      "happen": 799,
      "Let__": 800,
      "for": 801,
      "ga": 802,
      "lea": 803,
      "sc": 804,
      "ya__": 805,
      "_ny__": 806,
      "_ind": 807,
      "does__": 808,
      "sec": 809,
      "call__": 810,
      "more__": 811,
      "talk__": 812,
      "Wa": 813,
      "ah__": 814,
      "night__": 815,
      "po": 816,
      "_est__": 817,
      "_te__": 818,
      "_esn__": 819,
      "big__": 820,
      "Are__": 821,
      "min": 822,
      "_row__": 823,
      "place__": 824,
      "_emem": 825,
      "_ello__": 826,
      "feel__": 827,
      "They__": 828,
      "maybe__": 829,
      "_self__": 830,
      "lot__": 831,
      "per": 832,
      "par": 833,
      "_ep": 834,
      "_il": 835,
      "than": 836,
      "There__": 837,
      "ever__": 838,
      "_ion": 839,
      "_ant__": 840,
      "doesn__": 841,
      "put__": 842,
      "_ays__": 843,
      "_ning__": 844,
      "baby__": 845,
      "My__": 846,
      "wr": 847,
      "_as": 848,
      "_tty__": 849,
      "_ab": 850,
      "_ob__": 851,
      "any__": 852,
      "anything__": 853,
      "married__": 854,
      "fu": 855,
      "fine__": 856,
      "nice__": 857,
      "_use__": 858,
      "_other__": 859,
      "_ven__": 860,
      "those__": 861,
      "_ance__": 862,
      "_ree__": 863,
      "things__": 864,
      "these__": 865,
      "_ute__": 866,
      "_emember__": 867,
      "Ma": 868,
      "Ohh__": 869,
      "ph": 870,
      "_ard__": 871,
      "...": 872,
      "Just__": 873,
      "list": 874,
      "_etting__": 875,
      "hel": 876,
      "_us": 877,
      "_ouldn__": 878,
      "_ent": 879,
      "_ends__": 880,
      "call": 881,
      "Rach__": 882,
      "girl__": 883,
      "Hello__": 884,
      "clo": 885,
      "hea": 886,
      "_fe__": 887,
      "stop__": 888,
      "wanted__": 889,
      "Can__": 890,
      "Here__": 891,
      "me": 892,
      "went__": 893,
      "_age__": 894,
      "_ge": 895,
      "_round__": 896,
      "_inda__": 897,
      "around__": 898,
      "room__": 899,
      "um__": 900,
      "won__": 901,
      "_ic__": 902,
      "_ment__": 903,
      "_ite__": 904,
      "_ick": 905,
      "_ide__": 906,
      "Thanks__": 907,
      "pretty__": 908,
      "into__": 909,
      "Al": 910,
      "Don__": 911,
      "Good__": 912,
      "_am": 913,
      "_ond__": 914,
      "_dding__": 915,
      "_ough__": 916,
      "_eri": 917,
      "bett": 918,
      "told__": 919,
      "last__": 920,
      "name__": 921,
      "happened__": 922,
      "id": 923,
      "tur": 924,
      "_ev": 925,
      "_ill": 926,
      "_ool__": 927,
      "_ich__": 928,
      "made__": 929,
      "care__": 930,
      "play__": 931,
      "bro": 932,
      "brea": 933,
      "cra": 934,
      "kinda__": 935,
      "_ls__": 936,
      "_ul__": 937,
      "_ol": 938,
      "_ways__": 939,
      "_ort": 940,
      "wedding__": 941,
      "better__": 942,
      "Did__": 943,
      "date__": 944,
      "ton": 945,
      "_and__": 946,
      "_ue__": 947,
      "_oh__": 948,
      "_!!__": 949,
      "thinking__": 950,
      "new__": 951,
      "Wait__": 952,
      "listen__": 953,
      "help__": 954,
      "_ole__": 955,
      "best__": 956,
      "Who__": 957,
      "talking__": 958,
      "friend__": 959,
      "Is__": 960,
      "ap": 961,
      "af": 962,
      "bl": 963,
      "getting__": 964,
      "kid": 965,
      "kind__": 966,
      "sl": 967,
      "having__": 968,
      "guess__": 969,
      "_unny__": 970,
      "_ish__": 971,
      "List": 972,
      "No": 973,
      "br": 974,
      "_et": 975,
      "_iss__": 976,
      "_ves__": 977,
      "_ity__": 978,
      "_ation__": 979,
      "toge": 980,
      "supp": 981,
      "always__": 982,
      "friends__": 983,
      "_eft__": 984,
      "Listen__": 985,
      "together__": 986,
      "dea": 987,
      "pick__": 988,
      "remember__": 989,
      "_able__": 990,
      "_il__": 991,
      "_son__": 992,
      "_oun": 993,
      "_ird__": 994,
      "woman__": 995,
      "second__": 996,
      "fun__": 997,
      "Ooh__": 998,
      "el": 999,
      "left__": 1000,
      "_ea__": 1001,
      "_ger__": 1002,
      "_xt__": 1003,
      "star": 1004,
      "Whoa__": 1005,
      "ask__": 1006,
      "phone__": 1007,
      "tonight__": 1008,
      "If__": 1009,
      "yet__": 1010,
      "_tally__": 1011,
      "_ise__": 1012,
      "_pid__": 1013,
      "bad__": 1014,
      "_ears__": 1015,
      "..__": 1016,
      "An": 1017,
      "Right__": 1018,
      "day__": 1019,
      "_ner__": 1020,
      "_der__": 1021,
      "_kes__": 1022,
      "next__": 1023,
      "Um__": 1024,
      "eat__": 1025,
      "lat": 1026,
      "part": 1027,
      "tom": 1028,
      "_ets__": 1029,
      "_ad__": 1030,
      "_um__": 1031,
      "_mes__": 1032,
      "_ver": 1033,
      "_ful__": 1034,
      "_orrow__": 1035,
      "_tion__": 1036,
      "under": 1037,
      "comp": 1038,
      "cour": 1039,
      "else__": 1040,
      "Bec": 1041,
      "Do": 1042,
      "Great__": 1043,
      "Not__": 1044,
      "Pl": 1045,
      "bye__": 1046,
      "job__": 1047,
      "mat": 1048,
      "sm": 1049,
      "wouldn__": 1050,
      "_sh": 1051,
      "_mm": 1052,
      "_ps__": 1053,
      "_anc": 1054,
      "whole__": 1055,
      "_ours__": 1056,
      "thank__": 1057,
      "wrong__": 1058,
      "See__": 1059,
      "cr": 1060,
      "din": 1061,
      "funny__": 1062,
      "hear__": 1063,
      "pr": 1064,
      "si": 1065,
      "see": 1066,
      "years__": 1067,
      "_ved__": 1068,
      "_ze__": 1069,
      "coming__": 1070,
      "_lem__": 1071,
      "forg": 1072,
      "_ions__": 1073,
      "_ably__": 1074,
      "....__": 1075,
      "Because__": 1076,
      "find__": 1077,
      "might__": 1078,
      "old__": 1079,
      "pic": 1080,
      "ring__": 1081,
      "try__": 1082,
      "_her__": 1083,
      "than__": 1084,
      "_oon__": 1085,
      "wasn__": 1086,
      "totally__": 1087,
      "Where__": 1088,
      "another__": 1089,
      "_eck__": 1090,
      "_ect__": 1091,
      "stupid__": 1092,
      "exp": 1093,
      "Maybe__": 1094,
      "called__": 1095,
      "Li": 1096,
      "dr": 1097,
      "fl": 1098,
      "my": 1099,
      "tea": 1100,
      "_cks__": 1101,
      "_ip__": 1102,
      "_osed__": 1103,
      "har": 1104,
      "_orning__": 1105,
      "_ctor__": 1106,
      "happy__": 1107,
      "problem__": 1108,
      "game__": 1109,
      "idea__": 1110,
      "after__": 1111,
      "Jan": 1112,
      "ac": 1113,
      "cl": 1114,
      "fin": 1115,
      "five__": 1116,
      "home__": 1117,
      "long__": 1118,
      "res": 1119,
      "yes__": 1120,
      "_ake__": 1121,
      "_ouse__": 1122,
      "_ither__": 1123,
      "wal": 1124,
      "_ents__": 1125,
      "_eci": 1126,
      "such__": 1127,
      "someone__": 1128,
      "_ssed__": 1129,
      "quest": 1130,
      "looking__": 1131,
      "nothing__": 1132,
      "course__": 1133,
      "myself__": 1134,
      "Ah__": 1135,
      "car": 1136,
      "done__": 1137,
      "han": 1138,
      "honey__": 1139,
      "imp": 1140,
      "money__": 1141,
      "ru": 1142,
      "_les__": 1143,
      "_oo__": 1144,
      "_mi": 1145,
      "_ms__": 1146,
      "wat": 1147,
      "_ach__": 1148,
      "stay__": 1149,
      "ready__": 1150,
      "When__": 1151,
      "inter": 1152,
      "trying__": 1153,
      "women__": 1154,
      "probably__": 1155,
      "tomorrow__": 1156,
      ".\"__": 1157,
      "Ow__": 1158,
      "app": 1159,
      "away__": 1160,
      "gra": 1161,
      "op": 1162,
      "pu": 1163,
      "_ck": 1164,
      "_ad": 1165,
      "_ta": 1166,
      "_gi": 1167,
      "came__": 1168,
      "_artment__": 1169,
      "supposed__": 1170,
      "later__": 1171,
      "Ben__": 1172,
      "Sorry__": 1173,
      "bea": 1174,
      "sin": 1175,
      "seri": 1176,
      "tell": 1177,
      "wee": 1178,
      "_een__": 1179,
      "_room__": 1180,
      "_ty__": 1181,
      "_ned__": 1182,
      "_zy__": 1183,
      "_qu": 1184,
      "three__": 1185,
      "_ound__": 1186,
      "life__": 1187,
      "wants__": 1188,
      "today__": 1189,
      "_ffee__": 1190,
      "exc": 1191,
      "_ows__": 1192,
      "leave__": 1193,
      "party__": 1194,
      "Please__": 1195,
      "Ex": 1196,
      "Go__": 1197,
      "hot__": 1198,
      "keep__": 1199,
      "_eet__": 1200,
      "_ling__": 1201,
      "_ting__": 1202,
      "_ter": 1203,
      "_ile__": 1204,
      "_fri": 1205,
      "_bb": 1206,
      "_ence__": 1207,
      "being__": 1208,
      "_ope__": 1209,
      "happen__": 1210,
      "mus": 1211,
      "couldn__": 1212,
      "weird__": 1213,
      "enough__": 1214,
      "minute__": 1215,
      "Huh__": 1216,
      "can": 1217,
      "gi": 1218,
      "took__": 1219,
      "_act": 1220,
      "real__": 1221,
      "sex__": 1222,
      "saying__": 1223,
      "_ister__": 1224,
      "coffee__": 1225,
      "diff": 1226,
      "part__": 1227,
      "crazy__": 1228,
      "hard__": 1229,
      "ar": 1230,
      "du": 1231,
      "each__": 1232,
      "morning__": 1233,
      "re": 1234,
      "ro": 1235,
      "sch": 1236,
      "tra": 1237,
      "_ever__": 1238,
      "_ns__": 1239,
      "_ants__": 1240,
      "haven__": 1241,
      "_ary__": 1242,
      "whoa__": 1243,
      "pla": 1244,
      "move__": 1245,
      "every__": 1246,
      "_earing__": 1247,
      "matter__": 1248,
      "Dr__": 1249,
      "Gell": 1250,
      "Ha": 1251,
      "Me__": 1252,
      "bir": 1253,
      "must__": 1254,
      "ok__": 1255,
      "year__": 1256,
      "_right__": 1257,
      "_us__": 1258,
      "_ud": 1259,
      "_om__": 1260,
      "_gn": 1261,
      "_mer": 1262,
      "_more__": 1263,
      "_ple__": 1264,
      "_vi": 1265,
      "hand__": 1266,
      "_oor__": 1267,
      "knew__": 1268,
      "_ory__": 1269,
      "which__": 1270,
      "high__": 1271,
      "anyone__": 1272,
      "anymore__": 1273,
      "everything__": 1274,
      "head__": 1275,
      "apartment__": 1276,
      "dinner__": 1277,
      "serious__": 1278,
      "Bing__": 1279,
      "Fine__": 1280,
      "Mr__": 1281,
      "cu": 1282,
      "hur": 1283,
      "hours__": 1284,
      "may__": 1285,
      "num": 1286,
      "_gg": 1287,
      "_dle__": 1288,
      "_ww__": 1289,
      "_zing__": 1290,
      "_ings__": 1291,
      "_ous": 1292,
      "knows__": 1293,
      "reali": 1294,
      "cause__": 1295,
      "plan": 1296,
      "most__": 1297,
      "their__": 1298,
      "_ching__": 1299,
      "sleep__": 1300,
      "Nothing__": 1301,
      "Does__": 1302,
      "Janice__": 1303,
      "_mily__": 1304,
      "telling__": 1305,
      "_friend__": 1306,
      "differ": 1307,
      "Cause__": 1308,
      "ad": 1309,
      "em__": 1310,
      "eas": 1311,
      "isn__": 1312,
      "man": 1313,
      "pi": 1314,
      "ra": 1315,
      "roo": 1316,
      "rel": 1317,
      "so": 1318,
      "_lf__": 1319,
      "_rac": 1320,
      "_rand": 1321,
      "_ture__": 1322,
      "live__": 1323,
      "start": 1324,
      "show__": 1325,
      "show": 1326,
      "seen__": 1327,
      "says__": 1328,
      "_utes__": 1329,
      "marry__": 1330,
      "naked__": 1331,
      "_mazing__": 1332,
      "minutes__": 1333,
      "turn__": 1334,
      "bring__": 1335,
      "underst": 1336,
      "Geller__": 1337,
      "Car": 1338,
      "Get__": 1339,
      "Sure__": 1340,
      "amazing__": 1341,
      "ho__": 1342,
      "mine__": 1343,
      "sister__": 1344,
      "won": 1345,
      "your": 1346,
      "_uti": 1347,
      "_ach": 1348,
      "_ated__": 1349,
      "_eli": 1350,
      "same__": 1351,
      "Joe__": 1352,
      "mov": 1353,
      "_til__": 1354,
      "ins": 1355,
      "comes__": 1356,
      "_lad__": 1357,
      "couple__": 1358,
      "everybody__": 1359,
      "thanks__": 1360,
      "start__": 1361,
      "hang__": 1362,
      "Fr": 1363,
      "OK__": 1364,
      "cla": 1365,
      "dec": 1366,
      "hand": 1367,
      "house__": 1368,
      "late__": 1369,
      "nee": 1370,
      "use__": 1371,
      "wish__": 1372,
      "wearing__": 1373,
      "_al": 1374,
      "_hhh__": 1375,
      "_go__": 1376,
      "_pri": 1377,
      "throw__": 1378,
      "half__": 1379,
      "_ook": 1380,
      "_ically__": 1381,
      "_ark__": 1382,
      "lost__": 1383,
      "chance__": 1384,
      "check__": 1385,
      "somebody__": 1386,
      "inv": 1387,
      "world__": 1388,
      "until__": 1389,
      "both__": 1390,
      "though__": 1391,
      "swee": 1392,
      "meet__": 1393,
      "break__": 1394,
      "deal__": 1395,
      "question__": 1396,
      "beauti": 1397,
      "_randm": 1398,
      "yourself__": 1399,
      "beautiful__": 1400,
      "!!!__": 1401,
      "Ev": 1402,
      "att": 1403,
      "bed__": 1404,
      "hear": 1405,
      "kiss__": 1406,
      "mon": 1407,
      "mind__": 1408,
      "own__": 1409,
      "_ep__": 1410,
      "_ar__": 1411,
      "_rr": 1412,
      "_igh": 1413,
      "_so__": 1414,
      "_here__": 1415,
      "_vor": 1416,
      "_!!": 1417,
      "read__": 1418,
      "making__": 1419,
      "god__": 1420,
      "saw__": 1421,
      "mom__": 1422,
      "_unch__": 1423,
      "anyway__": 1424,
      "alrea": 1425,
      "speci": 1426,
      "father__": 1427,
      "asked__": 1428,
      "perf": 1429,
      "person__": 1430,
      "kids__": 1431,
      "Any": 1432,
      "prom": 1433,
      "Like__": 1434,
      "walk__": 1435,
      "watch__": 1436,
      "number__": 1437,
      "_ously__": 1438,
      "understand__": 1439,
      "already__": 1440,
      "Bi": 1441,
      "Bye__": 1442,
      "Would__": 1443,
      "dis": 1444,
      "ha__": 1445,
      "hell__": 1446,
      "pants__": 1447,
      "tou": 1448,
      "wi": 1449,
      "_ci": 1450,
      "_hout__": 1451,
      "_mb": 1452,
      "_ping__": 1453,
      "throu": 1454,
      "_ited__": 1455,
      "_itch__": 1456,
      "_ort__": 1457,
      "_ack": 1458,
      "while__": 1459,
      "_ress__": 1460,
      "_row": 1461,
      "chi": 1462,
      "chan": 1463,
      "char": 1464,
      "hold__": 1465,
      "looks__": 1466,
      "fig": 1467,
      "Stop__": 1468,
      "acc": 1469,
      "Exc": 1470,
      "school__": 1471,
      "hurt__": 1472,
      "through__": 1473,
      "Bob__": 1474,
      "On": 1475,
      "Of__": 1476,
      "bit__": 1477,
      "either__": 1478,
      "kill__": 1479,
      "_are__": 1480,
      "_ast__": 1481,
      "_not__": 1482,
      "_sh__": 1483,
      "_sol": 1484,
      "_os": 1485,
      "_man__": 1486,
      "_kin__": 1487,
      "_00__": 1488,
      "hate__": 1489,
      "_thy__": 1490,
      "bet": 1491,
      "sho": 1492,
      "Then__": 1493,
      "mad__": 1494,
      "_aur": 1495,
      "_itting__": 1496,
      "_utely__": 1497,
      "alone__": 1498,
      "also__": 1499,
      "girls__": 1500,
      "babies__": 1501,
      "kidding__": 1502,
      "since__": 1503,
      "cannot__": 1504,
      "promise__": 1505,
      "_solutely__": 1506,
      "Honey__": 1507,
      "cool__": 1508,
      "des": 1509,
      "four__": 1510,
      "hon": 1511,
      "sou": 1512,
      "tick": 1513,
      "wear__": 1514,
      "_ess": 1515,
      "_ia__": 1516,
      "_oc": 1517,
      "_ging__": 1518,
      "_pe__": 1519,
      "_ded__": 1520,
      "_ween__": 1521,
      "_where__": 1522,
      "_ber": 1523,
      "_int__": 1524,
      "_ant": 1525,
      "_oot__": 1526,
      "_ici": 1527,
      "_ical__": 1528,
      "str": 1529,
      "without__": 1530,
      "doctor__": 1531,
      "_rist": 1532,
      "gone__": 1533,
      "once__": 1534,
      "sur": 1535,
      "_ssage__": 1536,
      "unb": 1537,
      "under__": 1538,
      "sweet__": 1539,
      "true__": 1540,
      "cont": 1541,
      "parents__": 1542,
      "_ept__": 1543,
      "Alright__": 1544,
      "_ounds__": 1545,
      "forget__": 1546,
      "picture__": 1547,
      "import": 1548,
      "between__": 1549,
      "!\"__": 1550,
      "Ahh__": 1551,
      "In__": 1552,
      "In": 1553,
      "Yep__": 1554,
      "cand": 1555,
      "cute__": 1556,
      "dum": 1557,
      "dad__": 1558,
      "food__": 1559,
      "found__": 1560,
      "gets__": 1561,
      "glad__": 1562,
      "hor": 1563,
      "jo": 1564,
      "kid__": 1565,
      "lu": 1566,
      "miss__": 1567,
      "or": 1568,
      "off": 1569,
      "sen": 1570,
      "ten__": 1571,
      "ter": 1572,
      "used__": 1573,
      "worry__": 1574,
      "_ew": 1575,
      "_am__": 1576,
      "_all__": 1577,
      "_sing__": 1578,
      "_ol__": 1579,
      "_ost__": 1580,
      "_olo": 1581,
      "_ank__": 1582,
      "_act__": 1583,
      "_ress": 1584,
      "_ating__": 1585,
      "doin__": 1586,
      "_irt__": 1587,
      "makes__": 1588,
      "goes__": 1589,
      "_tie__": 1590,
      "working__": 1591,
      "buy__": 1592,
      "bus": 1593,
      "gave__": 1594,
      "brother__": 1595,
      "interest": 1596,
      "different__": 1597,
      "easy__": 1598,
      "Carol__": 1599,
      "_eliev": 1600,
      "_randmother__": 1601,
      "Excuse__": 1602,
      "unbeliev": 1603,
      "Actually__": 1604,
      "For__": 1605,
      "Or__": 1606,
      "Sp": 1607,
      "Un": 1608,
      "Your__": 1609,
      "frea": 1610,
      "free__": 1611,
      "gay__": 1612,
      "goo": 1613,
      "lau": 1614,
      "mom": 1615,
      "mem": 1616,
      "ob": 1617,
      "soon__": 1618,
      "up": 1619,
      "win__": 1620,
      "_ed": 1621,
      "_ag": 1622,
      "_ah__": 1623,
      "_ame__": 1624,
      "_ib": 1625,
      "_ible__": 1626,
      "_issed__": 1627,
      "_sp": 1628,
      "_sgi": 1629,
      "_ged__": 1630,
      "_ming__": 1631,
      "_ksgi": 1632,
      "_zz": 1633,
      "_..__": 1634,
      "_ink__": 1635,
      "_ins__": 1636,
      "_iting__": 1637,
      "_erv": 1638,
      "_arry__": 1639,
      "stri": 1640,
      "story__": 1641,
      "able__": 1642,
      "ann": 1643,
      "plan__": 1644,
      "bath": 1645,
      "someti": 1646,
      "anybody__": 1647,
      "Thanksgi": 1648,
      "girl": 1649,
      "_actly__": 1650,
      "started__": 1651,
      "movie__": 1652,
      "sweetie__": 1653,
      "important__": 1654,
      "Ar": 1655,
      "Gu": 1656,
      "Gre": 1657,
      "Ka": 1658,
      "Man__": 1659,
      "Nice__": 1660,
      "Ugh__": 1661,
      "Uhh__": 1662,
      "aw": 1663,
      "book__": 1664,
      "bla": 1665,
      "ey": 1666,
      "end__": 1667,
      "fr": 1668,
      "grandmother__": 1669,
      "hu": 1670,
      "hour__": 1671,
      "hun": 1672,
      "le": 1673,
      "mach": 1674,
      "pay__": 1675,
      "sit__": 1676,
      "sounds__": 1677,
      "wow__": 1678,
      "_ese__": 1679,
      "_lt__": 1680,
      "_ap": 1681,
      "_av": 1682,
      "_ax__": 1683,
      "_air": 1684,
      "_rs__": 1685,
      "_iss": 1686,
      "_sw": 1687,
      "_os__": 1688,
      "_ker__": 1689,
      "_ft__": 1690,
      "_ont__": 1691,
      "_ons__": 1692,
      "_ition__": 1693,
      "_ich": 1694,
      "_enti": 1695,
      "liked__": 1696,
      "stre": 1697,
      "_ates__": 1698,
      "_rible__": 1699,
      "Which__": 1700,
      "_pping__": 1701,
      "answ": 1702,
      "times__": 1703,
      "bud": 1704,
      "family__": 1705,
      "feeling__": 1706,
      "pregn": 1707,
      "everyone__": 1708,
      "_mall__": 1709,
      "scar": 1710,
      "broke__": 1711,
      "six__": 1712,
      "open__": 1713,
      "muse": 1714,
      "roomm": 1715,
      "wonder": 1716,
      "Every": 1717,
      "perfect__": 1718,
      "candy__": 1719,
      "unbelievable__": 1720,
      "Thanksgiving__": 1721,
      "girlfriend__": 1722,
      "Kathy__": 1723,
      "machine__": 1724,
      "Ab": 1725,
      "Dam": 1726,
      "Remember__": 1727,
      "boo": 1728,
      "bet__": 1729,
      "bra": 1730,
      "dro": 1731,
      "dra": 1732,
      "def": 1733,
      "dep": 1734,
      "dance__": 1735,
      "ear": 1736,
      "face__": 1737,
      "hi__": 1738,
      "hope__": 1739,
      "ow": 1740,
      "rest": 1741,
      "son__": 1742,
      "song__": 1743,
      "sir__": 1744,
      "small__": 1745,
      "tri": 1746,
      "_ef__": 1747,
      "_leep__": 1748,
      "_ude__": 1749,
      "_ist__": 1750,
      "_ot": 1751,
      "_fort": 1752,
      "_jo": 1753,
      "_eak__": 1754,
      "_ghts__": 1755,
      "_orn__": 1756,
      "_ars__": 1757,
      "_ening__": 1758,
      "shouldn__": 1759,
      "_riage__": 1760,
      "_ross__": 1761,
      "_ired__": 1762,
      "_ppy__": 1763,
      "car__": 1764,
      "table__": 1765,
      "hit__": 1766,
      "means__": 1767,
      "ball__": 1768,
      "_ral__": 1769,
      "moving__": 1770,
      "_tic__": 1771,
      "_unk__": 1772,
      "buil": 1773,
      "lady__": 1774,
      "marriage__": 1775,
      "asleep__": 1776,
      "swea": 1777,
      "_ush__": 1778,
      "message__": 1779,
      "resp": 1780,
      "One__": 1781,
      "surpri": 1782,
      "_airs__": 1783,
      "buddy__": 1784,
      "museum__": 1785,
      "Bu": 1786,
      "Bo": 1787,
      "Dav": 1788,
      "Hmm__": 1789,
      "Ju": 1790,
      "Mon__": 1791,
      "Mrs__": 1792,
      "Very__": 1793,
      "ass__": 1794,
      "aud": 1795,
      "bou": 1796,
      "brou": 1797,
      "cut__": 1798,
      "cat": 1799,
      "fo": 1800,
      "fact__": 1801,
      "men__": 1802,
      "vi": 1803,
      "_hh": 1804,
      "_gu": 1805,
      "_most__": 1806,
      "_dd": 1807,
      "_wn": 1808,
      "_ean__": 1809,
      "_ooo__": 1810,
      "_itive__": 1811,
      "_lling__": 1812,
      "_erve__": 1813,
      "_ths__": 1814,
      "_thes__": 1815,
      "_red": 1816,
      "_ation": 1817,
      "_ations__": 1818,
      "_atever__": 1819,
      "tast": 1820,
      "taking__": 1821,
      "mean": 1822,
      "inc": 1823,
      "word__": 1824,
      "_ched__": 1825,
      "asking__": 1826,
      "pres": 1827,
      "hol": 1828,
      "fire__": 1829,
      "_ently__": 1830,
      "clothes__": 1831,
      "seeing__": 1832,
      "playing__": 1833,
      "realize__": 1834,
      "many__": 1835,
      "shower__": 1836,
      "Anyway__": 1837,
      "touch__": 1838,
      "wife__": 1839,
      "soup__": 1840,
      "bathroom__": 1841,
      "eyes__": 1842,
      "huge__": 1843,
      "roommate__": 1844,
      "restaur": 1845,
      "David__": 1846,
      "brought__": 1847,
      "Aw__": 1848,
      "Aww__": 1849,
      "Dude__": 1850,
      "Mom__": 1851,
      "Ohhh__": 1852,
      "Pe": 1853,
      "Sc": 1854,
      "Sus": 1855,
      "Tri": 1856,
      "Wh__": 1857,
      "bri": 1858,
      "bur": 1859,
      "eye__": 1860,
      "emb": 1861,
      "fell__": 1862,
      "few__": 1863,
      "its__": 1864,
      "line__": 1865,
      "lear": 1866,
      "mou": 1867,
      "mid": 1868,
      "mist": 1869,
      "pur": 1870,
      "sick__": 1871,
      "wind": 1872,
      "’?__": 1873,
      "_ley__": 1874,
      "_led__": 1875,
      "_as__": 1876,
      "_im": 1877,
      "_ipp": 1878,
      "_ock__": 1879,
      "_gy__": 1880,
      "_pt__": 1881,
      "_wear__": 1882,
      "_ken__": 1883,
      "_inc": 1884,
      "_iness__": 1885,
      "_ead__": 1886,
      "_orm": 1887,
      "_ors__": 1888,
      "_icks__": 1889,
      "_thday__": 1890,
      "list__": 1891,
      "lives__": 1892,
      "stra": 1893,
      "_rew__": 1894,
      "_ster__": 1895,
      "thinks__": 1896,
      "reason__": 1897,
      "dog__": 1898,
      "seven__": 1899,
      "_ident__": 1900,
      "sub": 1901,
      "lov": 1902,
      "chee": 1903,
      "bas": 1904,
      "Check__": 1905,
      "talked__": 1906,
      "spend__": 1907,
      "boy__": 1908,
      "box": 1909,
      "boy": 1910,
      "divor": 1911,
      "least__": 1912,
      "close__": 1913,
      "_ickn": 1914,
      "blue__": 1915,
      "_vers": 1916,
      "underwear__": 1917,
      "seem__": 1918,
      "aren__": 1919,
      "plans__": 1920,
      "change__": 1921,
      "moment__": 1922,
      "Green__": 1923,
      "street__": 1924,
      "pregnant__": 1925,
      "scared__": 1926,
      "Susan__": 1927,
      "?!!__": 1928,
      "Co": 1929,
      "Give__": 1930,
      "New__": 1931,
      "Rich": 1932,
      "Wit": 1933,
      "ago__": 1934,
      "blo": 1935,
      "cer": 1936,
      "card__": 1937,
      "cook": 1938,
      "danc": 1939,
      "fel": 1940,
      "fau": 1941,
      "hmm__": 1942,
      "hop": 1943,
      "hello__": 1944,
      "kee": 1945,
      "kill": 1946,
      "lunch__": 1947,
      "porn__": 1948,
      "rest__": 1949,
      "side__": 1950,
      "yours__": 1951,
      "_cle__": 1952,
      "_come__": 1953,
      "_lem": 1954,
      "_uc": 1955,
      "_ua__": 1956,
      "_ig": 1957,
      "_ian": 1958,
      "_hn": 1959,
      "_gle__": 1960,
      "_mit__": 1961,
      "_ws__": 1962,
      "_br": 1963,
      "_init": 1964,
      "_llow__": 1965,
      "_ering__": 1966,
      "_ered__": 1967,
      "_ics__": 1968,
      "whatever__": 1969,
      "shirt__": 1970,
      "These__": 1971,
      "_stairs__": 1972,
      "sex": 1973,
      "_elcome__": 1974,
      "Josh": 1975,
      "lose__": 1976,
      "bag__": 1977,
      "Chip__": 1978,
      "moved__": 1979,
      "_tive__": 1980,
      "_ssa": 1981,
      "_ured__": 1982,
      "_lie__": 1983,
      "_ision__": 1984,
      "spent__": 1985,
      "bucks__": 1986,
      "fav": 1987,
      "coun": 1988,
      "_ester": 1989,
      "enjo": 1990,
      "not": 1991,
      "write__": 1992,
      "_ush": 1993,
      "apolo": 1994,
      "dead__": 1995,
      "smell__": 1996,
      "floor__": 1997,
      "team__": 1998,
      "questions__": 1999,
      "grab__": 2000,
      "_cket__": 2001,
      "week__": 2002,
      "_tern": 2003,
      "birthday__": 2004,
      "special__": 2005,
      "Big__": 2006,
      "figure__": 2007,
      "tickets__": 2008,
      "terrible__": 2009,
      "building__": 2010,
      "restaurant__": 2011,
      "Richard__": 2012,
      "fault__": 2013,
      "_initely__": 2014,
      "Joshua__": 2015,
      ".'__": 2016,
      "10__": 2017,
      "30__": 2018,
      "Dad__": 2019,
      "Eh__": 2020,
      "Ew__": 2021,
      "Emily__": 2022,
      "Ho": 2023,
      "Mark__": 2024,
      "Nah__": 2025,
      "Pa": 2026,
      "To": 2027,
      "Tell__": 2028,
      "ass": 2029,
      "bor": 2030,
      "city__": 2031,
      "door__": 2032,
      "emp": 2033,
      "gen": 2034,
      "hoo": 2035,
      "lett": 2036,
      "mon__": 2037,
      "sn": 2038,
      "_eed__": 2039,
      "_ase__": 2040,
      "_red__": 2041,
      "_up__": 2042,
      "_ual__": 2043,
      "_ire__": 2044,
      "_iot__": 2045,
      "_nd": 2046,
      "_ney__": 2047,
      "_son": 2048,
      "_gin": 2049,
      "_gger__": 2050,
      "_per__": 2051,
      "_don__": 2052,
      "_ward__": 2053,
      "_key__": 2054,
      "_fess": 2055,
      "_yp": 2056,
      "_oute__": 2057,
      "_antic__": 2058,
      "_onn": 2059,
      "_ern": 2060,
      "_ors": 2061,
      "_ord__": 2062,
      "_arra": 2063,
      "_arently__": 2064,
      "_ene__": 2065,
      "_ense__": 2066,
      "_ending__": 2067,
      "living__": 2068,
      "stick__": 2069,
      "store__": 2070,
      "stand__": 2071,
      "shot__": 2072,
      "_ste": 2073,
      "_att": 2074,
      "down": 2075,
      "absolutely__": 2076,
      "top__": 2077,
      "town__": 2078,
      "_pper__": 2079,
      "chick__": 2080,
      "chef__": 2081,
      "inf": 2082,
      "inst": 2083,
      "almost__": 2084,
      "_ream__": 2085,
      "stuck__": 2086,
      "butt": 2087,
      "fast__": 2088,
      "_lar__": 2089,
      "coll": 2090,
      "quit__": 2091,
      "quick__": 2092,
      "enti": 2093,
      "hole__": 2094,
      "happens__": 2095,
      "poss": 2096,
      "idiot__": 2097,
      "turned__": 2098,
      "Ang": 2099,
      "comple": 2100,
      "forgot__": 2101,
      "drunk__": 2102,
      "run__": 2103,
      "_addy__": 2104,
      "weeks__": 2105,
      "excuse__": 2106,
      "excited__": 2107,
      "_bbian": 2108,
      "piec": 2109,
      "relax__": 2110,
      "class__": 2111,
      "decid": 2112,
      "hands__": 2113,
      "heard__": 2114,
      "heart__": 2115,
      "months__": 2116,
      "luck__": 2117,
      "business__": 2118,
      "memor": 2119,
      "sometimes__": 2120,
      "answer__": 2121,
      "owe__": 2122,
      "_fortable__": 2123,
      "bought__": 2124,
      "meant__": 2125,
      "window__": 2126,
      "boxes__": 2127,
      "cookies__": 2128,
      "felt__": 2129,
      "_ndry__": 2130,
      "_bbiani__": 2131,
      "--__": 2132,
      "?\"__": 2133,
      "Amer": 2134,
      "Barry__": 2135,
      "Could__": 2136,
      "Dan": 2137,
      "Dra": 2138,
      "Ha__": 2139,
      "Ho__": 2140,
      "Jill__": 2141,
      "Kn": 2142,
      "Last__": 2143,
      "Mar": 2144,
      "Pro": 2145,
      "Pors": 2146,
      "Say__": 2147,
      "Some": 2148,
      "Ta": 2149,
      "To__": 2150,
      "actor__": 2151,
      "bitch__": 2152,
      "fight__": 2153,
      "flo": 2154,
      "ima": 2155,
      "mill": 2156,
      "nickn": 2157,
      "ow__": 2158,
      "out": 2159,
      "ran__": 2160,
      "rec": 2161,
      "sk": 2162,
      "tired__": 2163,
      "wro": 2164,
      "yester": 2165,
      "_less__": 2166,
      "_ay": 2167,
      "_ra__": 2168,
      "_ully__": 2169,
      "_tely__": 2170,
      "_if": 2171,
      "_ian__": 2172,
      "_set__": 2173,
      "_side__": 2174,
      "_hy": 2175,
      "_ove__": 2176,
      "_ma__": 2177,
      "_mp__": 2178,
      "_ped__": 2179,
      "_ven": 2180,
      "_ket__": 2181,
      "_kend__": 2182,
      "_zed__": 2183,
      "_!!!__": 2184,
      "third__": 2185,
      "_iny__": 2186,
      "_ing": 2187,
      "_inst__": 2188,
      "hair__": 2189,
      "_oooo": 2190,
      "_lls__": 2191,
      "_llars__": 2192,
      "wait": 2193,
      "_art__": 2194,
      "_arter__": 2195,
      "_ther": 2196,
      "_ens__": 2197,
      "beh": 2198,
      "lie__": 2199,
      "_sts__": 2200,
      "dollars__": 2201,
      "ones__": 2202,
      "_ele": 2203,
      "_tting__": 2204,
      "_tten__": 2205,
      "mail__": 2206,
      "news__": 2207,
      "_pped__": 2208,
      "camer": 2209,
      "sad__": 2210,
      "_ect": 2211,
      "suck__": 2212,
      "sucks__": 2213,
      "loves__": 2214,
      "loved__": 2215,
      "chec": 2216,
      "somewhere__": 2217,
      "Christ": 2218,
      "mother__": 2219,
      "speak__": 2220,
      "box__": 2221,
      "feels__": 2222,
      "against__": 2223,
      "exactly__": 2224,
      "bigger__": 2225,
      "_eful__": 2226,
      "enga": 2227,
      "looked__": 2228,
      "conf": 2229,
      "scene__": 2230,
      "Was__": 2231,
      "point__": 2232,
      "...?__": 2233,
      "calling__": 2234,
      "clock__": 2235,
      "heal": 2236,
      "heads__": 2237,
      "Alan__": 2238,
      "starts__": 2239,
      "_ship__": 2240,
      "teach": 2241,
      "rule__": 2242,
      "watching__": 2243,
      "grade__": 2244,
      "dude__": 2245,
      "Have__": 2246,
      "Happy__": 2247,
      "cup__": 2248,
      "needs__": 2249,
      "child": 2250,
      "figured__": 2251,
      "contro": 2252,
      "office__": 2253,
      "interested__": 2254,
      "laundry__": 2255,
      "stripper__": 2256,
      "front__": 2257,
      "leg__": 2258,
      "Absolutely__": 2259,
      "sweater__": 2260,
      "audition__": 2261,
      "taste__": 2262,
      "Tribbiani__": 2263,
      "embarra": 2264,
      "mistake__": 2265,
      "boyfriend__": 2266,
      "With__": 2267,
      "entire__": 2268,
      "Angel": 2269,
      "completely__": 2270,
      "decided__": 2271,
      "Drake__": 2272,
      "wrote__": 2273,
      "yesterday__": 2274,
      "Am__": 2275,
      "Con": 2276,
      "Cas": 2277,
      "Fa": 2278,
      "Hel": 2279,
      "Is": 2280,
      "Isn__": 2281,
      "Ita": 2282,
      "Issa": 2283,
      "Jam": 2284,
      "Krist": 2285,
      "Mi": 2286,
      "Pre": 2287,
      "Sw": 2288,
      "Will__": 2289,
      "av": 2290,
      "back": 2291,
      "cat__": 2292,
      "coo": 2293,
      "days__": 2294,
      "dating__": 2295,
      "fat__": 2296,
      "hum": 2297,
      "kic": 2298,
      "kissed__": 2299,
      "light__": 2300,
      "lying__": 2301,
      "mess__": 2302,
      "missed__": 2303,
      "nur": 2304,
      "nerv": 2305,
      "pee": 2306,
      "rom": 2307,
      "rid": 2308,
      "rep": 2309,
      "rev": 2310,
      "sea": 2311,
      "set__": 2312,
      "sent__": 2313,
      "sitting__": 2314,
      "test__": 2315,
      "using__": 2316,
      "_ey": 2317,
      "_elly__": 2318,
      "_lm__": 2319,
      "_lings__": 2320,
      "_app": 2321,
      "_als__": 2322,
      "_ail__": 2323,
      "_ren__": 2324,
      "_rit": 2325,
      "_ret__": 2326,
      "_ule__": 2327,
      "_uro": 2328,
      "_ses__": 2329,
      "_sitive__": 2330,
      "_oice__": 2331,
      "_gr": 2332,
      "_ges__": 2333,
      "_my__": 2334,
      "_med__": 2335,
      "_den__": 2336,
      "_ft": 2337,
      "_...__": 2338,
      "_jan__": 2339,
      "_eal": 2340,
      "_out": 2341,
      "_any__": 2342,
      "_ones__": 2343,
      "_oose__": 2344,
      "_itch": 2345,
      "_llow": 2346,
      "_ghter__": 2347,
      "_orts__": 2348,
      "_icul": 2349,
      "_though__": 2350,
      "_els__": 2351,
      "neither__": 2352,
      "_echn": 2353,
      "sudd": 2354,
      "_lian__": 2355,
      "_elle__": 2356,
      "_ella__": 2357,
      "favor": 2358,
      "_che__": 2359,
      "_land__": 2360,
      "col": 2361,
      "cow": 2362,
      "switch__": 2363,
      "trust__": 2364,
      "pass__": 2365,
      "_ules__": 2366,
      "conc": 2367,
      "died__": 2368,
      "person": 2369,
      "_ilk__": 2370,
      "full__": 2371,
      "breaking__": 2372,
      "crush__": 2373,
      "drink__": 2374,
      "intervi": 2375,
      "_tain": 2376,
      "weekend__": 2377,
      "_bby__": 2378,
      "duck__": 2379,
      "birds__": 2380,
      "difference__": 2381,
      "adv": 2382,
      "relation": 2383,
      "inside__": 2384,
      "invite__": 2385,
      "attrac": 2386,
      "Bijan__": 2387,
      "_ician__": 2388,
      "strong__": 2389,
      "obvi": 2390,
      "upset__": 2391,
      "_zza__": 2392,
      "wondering__": 2393,
      "Damn__": 2394,
      "definitely__": 2395,
      "early__": 2396,
      "incred": 2397,
      "holding__": 2398,
      "Pete__": 2399,
      "middle__": 2400,
      "straight__": 2401,
      "divorce__": 2402,
      "favor__": 2403,
      "apologi": 2404,
      "Hold__": 2405,
      "_fessor__": 2406,
      "downstairs__": 2407,
      "Porsche__": 2408,
      "nickname__": 2409,
      "Christma": 2410,
      "Casey__": 2411,
      "Issac__": 2412,
      "nervous__": 2413,
      "romantic__": 2414,
      "By__": 2415,
      "Bro": 2416,
      "Di": 2417,
      "Lon": 2418,
      "Larry__": 2419,
      "Mc": 2420,
      "Ma__": 2421,
      "Morning__": 2422,
      "Nooo__": 2423,
      "Su": 2424,
      "Some__": 2425,
      "Seri": 2426,
      "Ti": 2427,
      "TV__": 2428,
      "Tul": 2429,
      "Take__": 2430,
      "Ve": 2431,
      "Were__": 2432,
      "Yay__": 2433,
      "act": 2434,
      "ate__": 2435,
      "bar": 2436,
      "cry__": 2437,
      "cop": 2438,
      "canc": 2439,
      "dou": 2440,
      "dri": 2441,
      "die__": 2442,
      "eight__": 2443,
      "fan__": 2444,
      "her": 2445,
      "hus": 2446,
      "jer": 2447,
      "jud": 2448,
      "jeal": 2449,
      "kept__": 2450,
      "la__": 2451,
      "lin": 2452,
      "letting__": 2453,
      "noo": 2454,
      "nipp": 2455,
      "opp": 2456,
      "over": 2457,
      "prou": 2458,
      "red__": 2459,
      "ride__": 2460,
      "ret": 2461,
      "route__": 2462,
      "rhy": 2463,
      "rules__": 2464,
      "sy": 2465,
      "sand": 2466,
      "sound__": 2467,
      "tu": 2468,
      "tough__": 2469,
      "techn": 2470,
      "wh__": 2471,
      "welcome__": 2472,
      "——__": 2473,
      "’.__": 2474,
      "….__": 2475,
      "_eys__": 2476,
      "_eth__": 2477,
      "_cles__": 2478,
      "_aa": 2479,
      "_ai": 2480,
      "_ade__": 2481,
      "_uck__": 2482,
      "_ier__": 2483,
      "_ience__": 2484,
      "_ius__": 2485,
      "_nit__": 2486,
      "_sa__": 2487,
      "_gine__": 2488,
      "_gers__": 2489,
      "_per": 2490,
      "_ky__": 2491,
      "_fa": 2492,
      "_yed__": 2493,
      "_ba__": 2494,
      "_band__": 2495,
      "_ini__": 2496,
      "_ince__": 2497,
      "_inging__": 2498,
      "_eal__": 2499,
      "_ane__": 2500,
      "_ons": 2501,
      "_its__": 2502,
      "knock__": 2503,
      "_eren__": 2504,
      "_ork__": 2505,
      "war": 2506,
      "water__": 2507,
      "_aces__": 2508,
      "_acking__": 2509,
      "_enn": 2510,
      "_end": 2511,
      "_ened__": 2512,
      "_ench__": 2513,
      "lights__": 2514,
      "stole__": 2515,
      "shut__": 2516,
      "_ree": 2517,
      "_reci": 2518,
      "_sting__": 2519,
      "_stic__": 2520,
      "_ately__": 2521,
      "_eech__": 2522,
      "goin__": 2523,
      "gotten__": 2524,
      "Roger__": 2525,
      "choose__": 2526,
      "_time__": 2527,
      "_ssy__": 2528,
      "_uring__": 2529,
      "_lip__": 2530,
      "worse__": 2531,
      "worked__": 2532,
      "worth__": 2533,
      "worried__": 2534,
      "_unt__": 2535,
      "Mona__": 2536,
      "unc": 2537,
      "_uth__": 2538,
      "_uter__": 2539,
      "along__": 2540,
      "alright__": 2541,
      "_ish": 2542,
      "speed__": 2543,
      "far__": 2544,
      "fair__": 2545,
      "_gas__": 2546,
      "_lain__": 2547,
      "body__": 2548,
      "_boy__": 2549,
      "feelings__": 2550,
      "bike__": 2551,
      "quarter__": 2552,
      "hoo__": 2553,
      "page__": 2554,
      "_ulations__": 2555,
      "happening__": 2556,
      "leaving__": 2557,
      "_emember": 2558,
      "Although__": 2559,
      "turkey__": 2560,
      "crap__": 2561,
      "Noo__": 2562,
      "Nobody__": 2563,
      "_etically__": 2564,
      "_ount__": 2565,
      "_vered__": 2566,
      "smart__": 2567,
      "_ancy__": 2568,
      "pract": 2569,
      "seems__": 2570,
      "picked__": 2571,
      "drin": 2572,
      "teach__": 2573,
      "across__": 2574,
      "clear__": 2575,
      "clean__": 2576,
      "finish__": 2577,
      "_ecially__": 2578,
      "impress": 2579,
      "appreci": 2580,
      "putting__": 2581,
      "_tain__": 2582,
      "Exactly__": 2583,
      "giving__": 2584,
      "birth__": 2585,
      "_gging__": 2586,
      "rooms__": 2587,
      "soa": 2588,
      "starting__": 2589,
      "showing__": 2590,
      "wonder__": 2591,
      "movies__": 2592,
      "decide__": 2593,
      "month__": 2594,
      "_rowing__": 2595,
      "changed__": 2596,
      "charming__": 2597,
      "shopping__": 2598,
      "freak__": 2599,
      "_specially__": 2600,
      "anno": 2601,
      "Guys__": 2602,
      "hund": 2603,
      "trip__": 2604,
      "surprise__": 2605,
      "mouth__": 2606,
      "purse__": 2607,
      "lovely__": 2608,
      "dancing__": 2609,
      "keeps__": 2610,
      "count": 2611,
      "empty__": 2612,
      "_stem__": 2613,
      "button__": 2614,
      "piece__": 2615,
      "Tag__": 2616,
      "flow": 2617,
      "behind__": 2618,
      "children__": 2619,
      "Angela__": 2620,
      "Italian__": 2621,
      "cooking__": 2622,
      "human__": 2623,
      "favorite__": 2624,
      "cowboy__": 2625,
      "relationship__": 2626,
      "apologize__": 2627,
      "Christmas__": 2628,
      "London__": 2629,
      "Seriously__": 2630,
      "Tulsa__": 2631,
      "Vegas__": 2632,
      "husband__": 2633,
      "jealous__": 2634,
      "proud__": 2635,
      "system__": 2636,
      "sandw": 2637,
      "!!!": 2638,
      "\".__": 2639,
      "'?__": 2640,
      "000__": 2641,
      "50__": 2642,
      "??__": 2643,
      "As__": 2644,
      "Ad": 2645,
      "Aw": 2646,
      "Bonn": 2647,
      "Bout": 2648,
      "Ca": 2649,
      "Cu": 2650,
      "Dum__": 2651,
      "Daddy__": 2652,
      "En": 2653,
      "Eli": 2654,
      "Either__": 2655,
      "Euro": 2656,
      "For": 2657,
      "Fir": 2658,
      "Five__": 2659,
      "Goo": 2660,
      "Got__": 2661,
      "Her__": 2662,
      "Jas": 2663,
      "Jake__": 2664,
      "Kay__": 2665,
      "Ms__": 2666,
      "Mary__": 2667,
      "Nope__": 2668,
      "Ou": 2669,
      "Op": 2670,
      "Ooo": 2671,
      "Pau": 2672,
      "Sa": 2673,
      "Sm": 2674,
      "Shh__": 2675,
      "Sant": 2676,
      "Tr": 2677,
      "York__": 2678,
      "ag": 2679,
      "ble": 2680,
      "bunch__": 2681,
      "dau": 2682,
      "dev": 2683,
      "dum__": 2684,
      "deli": 2685,
      "dress__": 2686,
      "dream__": 2687,
      "ex__": 2688,
      "feet__": 2689,
      "foot__": 2690,
      "gro": 2691,
      "he": 2692,
      "hook": 2693,
      "jum": 2694,
      "key__": 2695,
      "keys__": 2696,
      "less__": 2697,
      "met__": 2698,
      "mis": 2699,
      "milk__": 2700,
      "nine__": 2701,
      "oc": 2702,
      "pri": 2703,
      "pack__": 2704,
      "remember": 2705,
      "sing__": 2706,
      "sell__": 2707,
      "squ": 2708,
      "trou": 2709,
      "tiny__": 2710,
      "wine__": 2711,
      "weren__": 2712,
      "yell": 2713,
      "youn": 2714,
      "_ege__": 2715,
      "_ced__": 2716,
      "_ler__": 2717,
      "_lic": 2718,
      "_amp": 2719,
      "_ry": 2720,
      "_rying__": 2721,
      "_uts__": 2722,
      "_ually__": 2723,
      "_uation__": 2724,
      "_ular__": 2725,
      "_ii": 2726,
      "_im__": 2727,
      "_ial__": 2728,
      "_iver": 2729,
      "_imm": 2730,
      "_sc": 2731,
      "_ser__": 2732,
      "_sec": 2733,
      "_own__": 2734,
      "_dies__": 2735,
      "_dest__": 2736,
      "_wise__": 2737,
      "_yer__": 2738,
      "_ball__": 2739,
      "_zab": 2740,
      "_jec": 2741,
      "_ining__": 2742,
      "_ints__": 2743,
      "_inated__": 2744,
      "_eas__": 2745,
      "_ana__": 2746,
      "_anna__": 2747,
      "_ont": 2748,
      "_ital__": 2749,
      "_ities__": 2750,
      "knoc": 2751,
      "_orm__": 2752,
      "_oray__": 2753,
      "wake__": 2754,
      "_thin__": 2755,
      "_ention__": 2756,
      "white__": 2757,
      "bed": 2758,
      "sta": 2759,
      "_rec": 2760,
      "_ressed__": 2761,
      "_sty__": 2762,
      "_sted__": 2763,
      "_ats__": 2764,
      "_ater__": 2765,
      "_atch__": 2766,
      "_atulations__": 2767,
      "_eep": 2768,
      "_eeping__": 2769,
      "reading__": 2770,
      "_ript__": 2771,
      "_ros__": 2772,
      "_ropri": 2773,
      "guest__": 2774,
      "_irty__": 2775,
      "maid__": 2776,
      "_idden__": 2777,
      "Wha__": 2778,
      "case__": 2779,
      "takes__": 2780,
      "places__": 2781,
      "save__": 2782,
      "_ecting__": 2783,
      "sugg": 2784,
      "_anding__": 2785,
      "chick": 2786,
      "choice__": 2787,
      "bar__": 2788,
      "band__": 2789,
      "_tion": 2790,
      "_ties__": 2791,
      "_emon": 2792,
      "_ssing__": 2793,
      "_urn__": 2794,
      "_ures__": 2795,
      "tie__": 2796,
      "worst__": 2797,
      "words__": 2798,
      "_ells__": 2799,
      "_unately__": 2800,
      "univer": 2801,
      "_uture__": 2802,
      "spending__": 2803,
      "comfortable__": 2804,
      "_read__": 2805,
      "fall__": 2806,
      "fash": 2807,
      "lab": 2808,
      "couch__": 2809,
      "_ffay__": 2810,
      "boat__": 2811,
      "twice__": 2812,
      "thoughts__": 2813,
      "Shoot__": 2814,
      "nap__": 2815,
      "names__": 2816,
      "coat__": 2817,
      "cover__": 2818,
      "pret": 2819,
      "ext": 2820,
      "swit": 2821,
      "outta__": 2822,
      "enter": 2823,
      "hosp": 2824,
      "past__": 2825,
      "paid__": 2826,
      "pain__": 2827,
      "fix__": 2828,
      "Stev": 2829,
      "cons": 2830,
      "convers": 2831,
      "forever__": 2832,
      "forward__": 2833,
      "secre": 2834,
      "pocket__": 2835,
      "Mag": 2836,
      ".....__": 2837,
      "listening__": 2838,
      "_entral__": 2839,
      "broken__": 2840,
      "sleeping__": 2841,
      "_mmer__": 2842,
      "crit": 2843,
      "dinos": 2844,
      "size__": 2845,
      "experi": 2846,
      "finally__": 2847,
      "final__": 2848,
      "walking__": 2849,
      "walked__": 2850,
      "cares__": 2851,
      "hanging__": 2852,
      "apparently__": 2853,
      "_cky__": 2854,
      "except__": 2855,
      "gift__": 2856,
      "roll__": 2857,
      "pig__": 2858,
      "sold__": 2859,
      "Frank__": 2860,
      "_rrrr": 2861,
      "_cial__": 2862,
      "_rowed__": 2863,
      "honor__": 2864,
      "honest__": 2865,
      "ticket__": 2866,
      "Ind": 2867,
      "dump__": 2868,
      "order__": 2869,
      "sense__": 2870,
      "sensitive__": 2871,
      "busy__": 2872,
      "interesting__": 2873,
      "goof": 2874,
      "sometime__": 2875,
      "Aren__": 2876,
      "blaz": 2877,
      "_entist__": 2878,
      "Everything__": 2879,
      "Everybody__": 2880,
      "books__": 2881,
      "brain__": 2882,
      "drop__": 2883,
      "surprised__": 2884,
      "Buffay__": 2885,
      "Julie__": 2886,
      "catch__": 2887,
      "follow__": 2888,
      "view__": 2889,
      "presents__": 2890,
      "bride__": 2891,
      "cheesec": 2892,
      "hoping__": 2893,
      "hooked__": 2894,
      "college__": 2895,
      "imagine__": 2896,
      "outside__": 2897,
      "_therwise__": 2898,
      "_elebr": 2899,
      "checking__": 2900,
      "engaged__": 2901,
      "health__": 2902,
      "teacher__": 2903,
      "Father__": 2904,
      "Mike__": 2905,
      "kicking__": 2906,
      "ridicul": 2907,
      "_appropri": 2908,
      "_gratulations__": 2909,
      "personal__": 2910,
      "incredible__": 2911,
      "noodle__": 2912,
      "warm__": 2913,
      "_ished__": 2914,
      "appreciate__": 2915,
      "annoying__": 2916,
      "hundred__": 2917,
      "Bonnie__": 2918,
      "Boutros__": 2919,
      "Elizab": 2920,
      "First__": 2921,
      "Jason__": 2922,
      "Open__": 2923,
      "daughter__": 2924,
      "trouble__": 2925,
      "universe__": 2926,
      "fashion__": 2927,
      "hospital__": 2928,
      "conversation__": 2929,
      "cheesecake__": 2930,
      "_appropriate__": 2931,
      "Elizabeth__": 2932,
      "',__": 2933,
      ",\"__": 2934,
      "00__": 2935,
      "17__": 2936,
      "25__": 2937,
      "40__": 2938,
      "App": 2939,
      "Bl": 2940,
      "Bar": 2941,
      "Bett": 2942,
      "Bern": 2943,
      "Brit": 2944,
      "Cl": 2945,
      "Central__": 2946,
      "Dou": 2947,
      "Dear__": 2948,
      "Even__": 2949,
      "Far": 2950,
      "Fri": 2951,
      "Gun": 2952,
      "Grandm": 2953,
      "Hm__": 2954,
      "How": 2955,
      "Jack__": 2956,
      "King__": 2957,
      "Little__": 2958,
      "MY__": 2959,
      "May__": 2960,
      "Move__": 2961,
      "Ne": 2962,
      "Night__": 2963,
      "Park__": 2964,
      "Qu": 2965,
      "Rel": 2966,
      "San__": 2967,
      "Sat": 2968,
      "Sun": 2969,
      "age__": 2970,
      "aff": 2971,
      "actu": 2972,
      "air__": 2973,
      "bear": 2974,
      "bank__": 2975,
      "cor": 2976,
      "cen": 2977,
      "candl": 2978,
      "cross__": 2979,
      "celebr": 2980,
      "don": 2981,
      "doo": 2982,
      "dar": 2983,
      "dry__": 2984,
      "del": 2985,
      "dam": 2986,
      "dirty__": 2987,
      "eh__": 2988,
      "ed": 2989,
      "fea": 2990,
      "fan": 2991,
      "foo": 2992,
      "fill__": 2993,
      "fur": 2994,
      "fle": 2995,
      "future__": 2996,
      "gy": 2997,
      "gar": 2998,
      "groom__": 2999,
      "home": 3000,
      "iss": 3001,
      "ice__": 3002,
      "jam__": 3003,
      "kick__": 3004,
      "kiss": 3005,
      "kitch": 3006,
      "lic": 3007,
      "lemon": 3008,
      "mee": 3009,
      "nat": 3010,
      "nigh": 3011,
      "our": 3012,
      "pop": 3013,
      "pie__": 3014,
      "pink__": 3015,
      "soo__": 3016,
      "tour__": 3017,
      "treat__": 3018,
      "tree__": 3019,
      "us": 3020,
      "_eg": 3021,
      "_eer__": 3022,
      "_eld__": 3023,
      "_cy__": 3024,
      "_cent__": 3025,
      "_lu": 3026,
      "_la__": 3027,
      "_ale__": 3028,
      "_ru": 3029,
      "_rs": 3030,
      "_ring__": 3031,
      "_ught__": 3032,
      "_uce__": 3033,
      "_upid__": 3034,
      "_ural__": 3035,
      "_tes__": 3036,
      "_tel__": 3037,
      "_io__": 3038,
      "_hn__": 3039,
      "_oe__": 3040,
      "_oin": 3041,
      "_oid__": 3042,
      "_over__": 3043,
      "_gly__": 3044,
      "_mme__": 3045,
      "_moon__": 3046,
      "_pl": 3047,
      "_ph": 3048,
      "_vy__": 3049,
      "_da__": 3050,
      "_db": 3051,
      "_di__": 3052,
      "_fi": 3053,
      "_fth__": 3054,
      "_fet": 3055,
      "_fully__": 3056,
      "_bb__": 3057,
      "_bin": 3058,
      "_bot__": 3059,
      "_bers__": 3060,
      "_ject__": 3061,
      "throwing__": 3062,
      "_ans": 3063,
      "_ans__": 3064,
      "_ona__": 3065,
      "_onger__": 3066,
      "hah__": 3067,
      "hall__": 3068,
      "hats__": 3069,
      "hates__": 3070,
      "_ooth__": 3071,
      "_ller__": 3072,
      "_lled__": 3073,
      "_ght": 3074,
      "ways__": 3075,
      "waiting__": 3076,
      "_the__": 3077,
      "_acter__": 3078,
      "_ens": 3079,
      "beer__": 3080,
      "lif": 3081,
      "standing__": 3082,
      "short__": 3083,
      "share__": 3084,
      "shoot__": 3085,
      "Those__": 3086,
      "_stick__": 3087,
      "_stard__": 3088,
      "_stage__": 3089,
      "_ative__": 3090,
      "sem": 3091,
      "sec__": 3092,
      "selling__": 3093,
      "mag": 3094,
      "_ide": 3095,
      "_ider__": 3096,
      "_iday__": 3097,
      "neigh": 3098,
      "calm__": 3099,
      "saving__": 3100,
      "safe__": 3101,
      "sauce__": 3102,
      "_ects__": 3103,
      "suds__": 3104,
      "Rober": 3105,
      "John__": 3106,
      "cha__": 3107,
      "chute__": 3108,
      "_raid__": 3109,
      "Chlo": 3110,
      "inappropriate__": 3111,
      "_liar__": 3112,
      "evil__": 3113,
      "_itter__": 3114,
      "_unning__": 3115,
      "_ised__": 3116,
      "spea": 3117,
      "spot__": 3118,
      "comm": 3119,
      "bug__": 3120,
      "bump": 3121,
      "fake__": 3122,
      "fami": 3123,
      "ladies__": 3124,
      "_esting__": 3125,
      "board__": 3126,
      "_istant__": 3127,
      "twel": 3128,
      "covered__": 3129,
      "asks__": 3130,
      "prot": 3131,
      "swear__": 3132,
      "bigg": 3133,
      "Ready__": 3134,
      "fired__": 3135,
      "trick__": 3136,
      "truth__": 3137,
      "quick": 3138,
      "ended__": 3139,
      "hotel__": 3140,
      "paper__": 3141,
      "_derst": 3142,
      "nobody__": 3143,
      "nothin__": 3144,
      "_selves__": 3145,
      "_ula__": 3146,
      "_ulf": 3147,
      "Stupid__": 3148,
      "scre": 3149,
      "script__": 3150,
      "secret__": 3151,
      "post": 3152,
      "poker__": 3153,
      "_iling__": 3154,
      "_ility__": 3155,
      "writing__": 3156,
      "_asing__": 3157,
      "_abella__": 3158,
      "_enty__": 3159,
      "calls__": 3160,
      "med": 3161,
      "_amp__": 3162,
      "_amb": 3163,
      "turns__": 3164,
      "aftern": 3165,
      "black__": 3166,
      "suppose__": 3167,
      "lately__": 3168,
      "tomat": 3169,
      "compet": 3170,
      "company__": 3171,
      "computer__": 3172,
      "smo": 3173,
      "sig": 3174,
      "picking__": 3175,
      "explain__": 3176,
      "expecting__": 3177,
      "teaching__": 3178,
      "careful__": 3179,
      "opened__": 3180,
      "sink__": 3181,
      "single__": 3182,
      "music__": 3183,
      "canoe__": 3184,
      "gimme__": 3185,
      "reg": 3186,
      "robot__": 3187,
      "cust": 3188,
      "realise__": 3189,
      "plane__": 3190,
      "easier__": 3191,
      "pizza__": 3192,
      "rather__": 3193,
      "_ract__": 3194,
      "French__": 3195,
      "handle__": 3196,
      "needed__": 3197,
      "invited__": 3198,
      "Anybody__": 3199,
      "child__": 3200,
      "accept__": 3201,
      "accident__": 3202,
      "shoes__": 3203,
      "desk__": 3204,
      "dumped__": 3205,
      "_ews__": 3206,
      "laugh": 3207,
      "_ibly__": 3208,
      "hung__": 3209,
      "wonderful__": 3210,
      "brave__": 3211,
      "respons": 3212,
      "_ational__": 3213,
      "learned__": 3214,
      "subway__": 3215,
      "cheese__": 3216,
      "killed__": 3217,
      "enjoy__": 3218,
      "Totally__": 3219,
      "assistant__": 3220,
      "boring__": 3221,
      "genius__": 3222,
      "letter__": 3223,
      "inform": 3224,
      "instead__": 3225,
      "possible__": 3226,
      "memories__": 3227,
      "Something__": 3228,
      "camera__": 3229,
      "control__": 3230,
      "embarrassed__": 3231,
      "Heldi__": 3232,
      "Isabella__": 3233,
      "James__": 3234,
      "Pretty__": 3235,
      "sudden__": 3236,
      "concent": 3237,
      "interview__": 3238,
      "obviously__": 3239,
      "copy__": 3240,
      "drive__": 3241,
      "jerk__": 3242,
      "judge__": 3243,
      "nipple__": 3244,
      "tux__": 3245,
      "technically__": 3246,
      "flowers__": 3247,
      "Europe__": 3248,
      "Our__": 3249,
      "Santa__": 3250,
      "blew__": 3251,
      "device__": 3252,
      "hooker__": 3253,
      "priv": 3254,
      "remembered__": 3255,
      "bedroom__": 3256,
      "suggest": 3257,
      "chicken__": 3258,
      "extra__": 3259,
      "secrets__": 3260,
      "experience__": 3261,
      "ridiculous__": 3262,
      "British__": 3263,
      "Gunther__": 3264,
      "Grandma__": 3265,
      "Relax__": 3266,
      "actual__": 3267,
      "center__": 3268,
      "candles__": 3269,
      "celebrate__": 3270,
      "gym__": 3271,
      "kitchen__": 3272,
      "lemonade__": 3273,
      "_dbye__": 3274,
      "neighb": 3275,
      "Robert__": 3276,
      "Chloe__": 3277,
      "familiar__": 3278,
      "!!!!__": 3279,
      "'.__": 3280,
      "15__": 3281,
      "500__": 3282,
      "?!": 3283,
      "?’__": 3284,
      "Aunt__": 3285,
      "Be__": 3286,
      "Bamb": 3287,
      "Clo": 3288,
      "Cal": 3289,
      "Done__": 3290,
      "Fl": 3291,
      "Fu": 3292,
      "Ge": 3293,
      "Gee__": 3294,
      "Hu": 3295,
      "Hea": 3296,
      "Had__": 3297,
      "Hope__": 3298,
      "Jim__": 3299,
      "Kip__": 3300,
      "Lu": 3301,
      "Loo": 3302,
      "Mm__": 3303,
      "Min": 3304,
      "Man": 3305,
      "Mat": 3306,
      "Mine__": 3307,
      "Noo": 3308,
      "Never__": 3309,
      "On__": 3310,
      "Pou": 3311,
      "Post__": 3312,
      "Rem": 3313,
      "Ser": 3314,
      "Sec": 3315,
      "Tw": 3316,
      "Tom": 3317,
      "Tree": 3318,
      "Urs": 3319,
      "Welcome__": 3320,
      "Wanna__": 3321,
      "Yem": 3322,
      "Zel": 3323,
      "ad__": 3324,
      "are": 3325,
      "air": 3326,
      "ain__": 3327,
      "ali": 3328,
      "allow": 3329,
      "bout__": 3330,
      "but": 3331,
      "bite__": 3332,
      "bunny__": 3333,
      "bars__": 3334,
      "cir": 3335,
      "cur": 3336,
      "centi": 3337,
      "cred": 3338,
      "cream__": 3339,
      "dist": 3340,
      "deep__": 3341,
      "dates__": 3342,
      "daddy__": 3343,
      "dentist__": 3344,
      "eg": 3345,
      "especially__": 3346,
      "fit__": 3347,
      "fun": 3348,
      "fla": 3349,
      "four": 3350,
      "fact": 3351,
      "fulf": 3352,
      "gri": 3353,
      "grea": 3354,
      "gla": 3355,
      "gent": 3356,
      "hy": 3357,
      "hearing__": 3358,
      "hitting__": 3359,
      "hyp": 3360,
      "ir": 3361,
      "jack": 3362,
      "jail__": 3363,
      "king__": 3364,
      "lou": 3365,
      "longer__": 3366,
      "litter__": 3367,
      "mir": 3368,
      "miss": 3369,
      "nin": 3370,
      "near__": 3371,
      "norm": 3372,
      "nuts__": 3373,
      "od": 3374,
      "otherwise__": 3375,
      "pun": 3376,
      "poe": 3377,
      "pool__": 3378,
      "poor__": 3379,
      "push": 3380,
      "rid__": 3381,
      "rem": 3382,
      "ref": 3383,
      "rip__": 3384,
      "reci": 3385,
      "sla": 3386,
      "sle": 3387,
      "sol": 3388,
      "sort__": 3389,
      "serv": 3390,
      "tight__": 3391,
      "tel": 3392,
      "tried__": 3393,
      "tea__": 3394,
      "vis": 3395,
      "vest": 3396,
      "wet__": 3397,
      "zoo__": 3398,
      "……__": 3399,
      "_ego__": 3400,
      "_light__": 3401,
      "_lti": 3402,
      "_aps__": 3403,
      "_rg": 3404,
      "_ro__": 3405,
      "_rings__": 3406,
      "_ub__": 3407,
      "_uit__": 3408,
      "_uss": 3409,
      "_ugs__": 3410,
      "_uba__": 3411,
      "_trea": 3412,
      "_ior__": 3413,
      "_ily__": 3414,
      "_iest__": 3415,
      "_ium__": 3416,
      "_nn": 3417,
      "_sie__": 3418,
      "_han": 3419,
      "_head__": 3420,
      "_ob": 3421,
      "_oes__": 3422,
      "_oth": 3423,
      "_oss": 3424,
      "_get__": 3425,
      "_gar": 3426,
      "_gry__": 3427,
      "_gra": 3428,
      "_gth__": 3429,
      "_gue__": 3430,
      "_met": 3431,
      "_ments__": 3432,
      "_mones__": 3433,
      "_pes__": 3434,
      "_pose__": 3435,
      "_pstick__": 3436,
      "_very__": 3437,
      "_du": 3438,
      "_des__": 3439,
      "_die__": 3440,
      "_dress__": 3441,
      "_duc": 3442,
      "_ww": 3443,
      "_wing__": 3444,
      "_keep": 3445,
      "_ys": 3446,
      "_yle__": 3447,
      "_yin__": 3448,
      "_bage__": 3449,
      "_jor__": 3450,
      "_ina__": 3451,
      "_inted__": 3452,
      "_ealing__": 3453,
      "_ang__": 3454,
      "_ony__": 3455,
      "_omfortable__": 3456,
      "_itar__": 3457,
      "_ghkeep": 3458,
      "_ert__": 3459,
      "_erry__": 3460,
      "_ergy__": 3461,
      "_orc": 3462,
      "_orge__": 3463,
      "_ict": 3464,
      "_iced__": 3465,
      "_arm__": 3466,
      "_thers__": 3467,
      "_acy__": 3468,
      "_acec": 3469,
      "_acks__": 3470,
      "_ented__": 3471,
      "_ength__": 3472,
      "bee__": 3473,
      "likes__": 3474,
      "libr": 3475,
      "lipstick__": 3476,
      "star__": 3477,
      "sha": 3478,
      "shop__": 3479,
      "sheet__": 3480,
      "_aten__": 3481,
      "_eel__": 3482,
      "gun__": 3483,
      "guil": 3484,
      "guitar__": 3485,
      "_elini__": 3486,
      "tow": 3487,
      "toil": 3488,
      "_ttom__": 3489,
      "massage__": 3490,
      "masc": 3491,
      "major__": 3492,
      "Whew__": 3493,
      "neck__": 3494,
      "gogg": 3495,
      "cap": 3496,
      "cab__": 3497,
      "cafet": 3498,
      "tall__": 3499,
      "high": 3500,
      "saved__": 3501,
      "salad__": 3502,
      "_ected__": 3503,
      "suc": 3504,
      "Ross": 3505,
      "Rogers__": 3506,
      "_aur__": 3507,
      "lots__": 3508,
      "choc": 3509,
      "chasing__": 3510,
      "ball": 3511,
      "base__": 3512,
      "bake__": 3513,
      "bastard__": 3514,
      "Char": 3515,
      "Chuck__": 3516,
      "_tions__": 3517,
      "_ssure__": 3518,
      "_urday__": 3519,
      "_urance__": 3520,
      "_lic__": 3521,
      "_lies__": 3522,
      "eval": 3523,
      "_itten__": 3524,
      "works__": 3525,
      "_ellow__": 3526,
      "_elled__": 3527,
      "_unity__": 3528,
      "_underst": 3529,
      "_oph": 3530,
      "anywhere__": 3531,
      "_andling__": 3532,
      "Monday__": 3533,
      "Montrea": 3534,
      "uncle__": 3535,
      "unfa": 3536,
      "_esome__": 3537,
      "alta": 3538,
      "talkin__": 3539,
      "space__": 3540,
      "sports__": 3541,
      "_early__": 3542,
      "_earch__": 3543,
      "commer": 3544,
      "bus__": 3545,
      "bucket__": 3546,
      "become__": 3547,
      "las": 3548,
      "land__": 3549,
      "ladle__": 3550,
      "_cha__": 3551,
      "_ches__": 3552,
      "_lable__": 3553,
      "market__": 3554,
      "boss__": 3555,
      "bottom__": 3556,
      "_ists__": 3557,
      "_isters__": 3558,
      "twenty__": 3559,
      "_board__": 3560,
      "Shut__": 3561,
      "named__": 3562,
      "cost__": 3563,
      "coats__": 3564,
      "friend": 3565,
      "professor__": 3566,
      "_efully__": 3567,
      "_ump": 3568,
      "_ums__": 3569,
      "_leont": 3570,
      "_ower__": 3571,
      "trans": 3572,
      "quite__": 3573,
      "quitting__": 3574,
      "host__": 3575,
      "loose__": 3576,
      "pair__": 3577,
      "everywhere__": 3578,
      "fianc": 3579,
      "fifth__": 3580,
      "_dered__": 3581,
      "note__": 3582,
      "noise__": 3583,
      "_ulment__": 3584,
      "Stay__": 3585,
      "Still__": 3586,
      "conv": 3587,
      "dire": 3588,
      "games__": 3589,
      "lean__": 3590,
      "sci": 3591,
      "scoo": 3592,
      "scary__": 3593,
      "screw__": 3594,
      "pot": 3595,
      "percent__": 3596,
      "park__": 3597,
      "_eps__": 3598,
      "_ional__": 3599,
      "closing__": 3600,
      "Always__": 3601,
      "_eria__": 3602,
      "_illing__": 3603,
      "_olo__": 3604,
      "_ortunity__": 3605,
      "afraid__": 3606,
      "bla__": 3607,
      "blind__": 3608,
      "slice__": 3609,
      "bra__": 3610,
      "Doesn__": 3611,
      "crying__": 3612,
      "expect__": 3613,
      "Liam__": 3614,
      "flu": 3615,
      "Jane__": 3616,
      "act__": 3617,
      "clea": 3618,
      "click__": 3619,
      "reset__": 3620,
      "ruin__": 3621,
      "appoin": 3622,
      "oper": 3623,
      "pull__": 3624,
      "pupp": 3625,
      "seriously__": 3626,
      "_friends__": 3627,
      "arms__": 3628,
      "regu": 3629,
      "rock__": 3630,
      "sched": 3631,
      "train__": 3632,
      "trade__": 3633,
      "trash__": 3634,
      "played__": 3635,
      "plastic__": 3636,
      "_gne__": 3637,
      "numbers__": 3638,
      "realized__": 3639,
      "address__": 3640,
      "insurance__": 3641,
      "class": 3642,
      "needle__": 3643,
      "attention__": 3644,
      "_ight": 3645,
      "specif": 3646,
      "touched__": 3647,
      "character__": 3648,
      "account__": 3649,
      "shoe__": 3650,
      "deserve__": 3651,
      "honey": 3652,
      "stran": 3653,
      "dumb__": 3654,
      "horny__": 3655,
      "horrible__": 3656,
      "hormones__": 3657,
      "joke__": 3658,
      "jokes__": 3659,
      "lucky__": 3660,
      "ordered__": 3661,
      "offici": 3662,
      "_ology__": 3663,
      "Speech__": 3664,
      "Uncle__": 3665,
      "freaked__": 3666,
      "obs": 3667,
      "_ibule__": 3668,
      "strip__": 3669,
      "annulment__": 3670,
      "Aruba__": 3671,
      "legs__": 3672,
      "_aper__": 3673,
      "About__": 3674,
      "Damnit__": 3675,
      "department__": 3676,
      "earrings__": 3677,
      "respect__": 3678,
      "Bobby__": 3679,
      "_hhhh": 3680,
      "present__": 3681,
      "holiday__": 3682,
      "People__": 3683,
      "Sco": 3684,
      "learn__": 3685,
      "basket__": 3686,
      "divorced__": 3687,
      "killing__": 3688,
      "sexy__": 3689,
      "sexual__": 3690,
      "enjoying__": 3691,
      "notice__": 3692,
      "Paolo__": 3693,
      "letters__": 3694,
      "instinc": 3695,
      "Danny__": 3696,
      "Knicks__": 3697,
      "Prob": 3698,
      "Professor__": 3699,
      "million__": 3700,
      "millions__": 3701,
      "cameras__": 3702,
      "Congratulations__": 3703,
      "Swee": 3704,
      "avai": 3705,
      "backup__": 3706,
      "nurse__": 3707,
      "revi": 3708,
      "_tainment__": 3709,
      "attracted__": 3710,
      "Diego__": 3711,
      "double__": 3712,
      "opportunity__": 3713,
      "rhyme__": 3714,
      "practice__": 3715,
      "drinking__": 3716,
      "soap__": 3717,
      "country__": 3718,
      "sandwich__": 3719,
      "Paul__": 3720,
      "delivery__": 3721,
      "misunderst": 3722,
      "switching__": 3723,
      "entertainment__": 3724,
      "Stevens__": 3725,
      "dinosaur__": 3726,
      "goofing__": 3727,
      "blazer__": 3728,
      "Apparently__": 3729,
      "Farber__": 3730,
      "Friday__": 3731,
      "Saturday__": 3732,
      "furn": 3733,
      "garbage__": 3734,
      "meeting__": 3735,
      "usually__": 3736,
      "_ensive__": 3737,
      "life": 3738,
      "twelve__": 3739,
      "biggest__": 3740,
      "quickly__": 3741,
      "afternoon__": 3742,
      "custom": 3743,
      "responsib": 3744,
      "information__": 3745,
      "concentr": 3746,
      "Fun__": 3747,
      "George__": 3748,
      "Looks__": 3749,
      "Poughkeep": 3750,
      "Remoray__": 3751,
      "Treeger__": 3752,
      "Ursula__": 3753,
      "Yemen__": 3754,
      "area__": 3755,
      "allowed__": 3756,
      "centimet": 3757,
      "gentlem": 3758,
      "loud__": 3759,
      "slept__": 3760,
      "service__": 3761,
      "vestibule__": 3762,
      "_othetically__": 3763,
      "library__": 3764,
      "toilet__": 3765,
      "goggles__": 3766,
      "cafeteria__": 3767,
      "Rosselini__": 3768,
      "chocol": 3769,
      "Montreal__": 3770,
      "unfair__": 3771,
      "altar__": 3772,
      "appoint": 3773,
      "regular__": 3774,
      "honeymoon__": 3775,
      "available__": 3776,
      "Poughkeepsie__": 3777,
      "centimeters__": 3778,
      "!'__": 3779,
      "!?__": 3780,
      "!-__": 3781,
      "19": 3782,
      "19__": 3783,
      "16__": 3784,
      "13__": 3785,
      "27__": 3786,
      "20__": 3787,
      "200__": 3788,
      "71": 3789,
      "700__": 3790,
      "Ap": 3791,
      "All": 3792,
      "Ace__": 3793,
      "Any__": 3794,
      "Amy__": 3795,
      "Ba": 3796,
      "Bra": 3797,
      "Bas": 3798,
      "Bap": 3799,
      "Beg": 3800,
      "Com": 3801,
      "Cut__": 3802,
      "City__": 3803,
      "Call__": 3804,
      "Didn__": 3805,
      "Def": 3806,
      "Die__": 3807,
      "Dev": 3808,
      "Ed__": 3809,
      "Est": 3810,
      "Ehh__": 3811,
      "Emp": 3812,
      "Eww__": 3813,
      "Especially__": 3814,
      "Four__": 3815,
      "From__": 3816,
      "Fort": 3817,
      "GO__": 3818,
      "Gee": 3819,
      "Gal": 3820,
      "Gim": 3821,
      "He": 3822,
      "Hec": 3823,
      "Hard__": 3824,
      "Jr__": 3825,
      "Kind__": 3826,
      "Kinda__": 3827,
      "Kyle__": 3828,
      "Lo": 3829,
      "Later__": 3830,
      "Mu": 3831,
      "Mor": 3832,
      "More__": 3833,
      "Mill": 3834,
      "Miss": 3835,
      "Na": 3836,
      "Oy__": 3837,
      "Op__": 3838,
      "Oo__": 3839,
      "OH__": 3840,
      "Out__": 3841,
      "Oww__": 3842,
      "Ober": 3843,
      "Pi": 3844,
      "Per": 3845,
      "Par": 3846,
      "Red__": 3847,
      "Route__": 3848,
      "Ray": 3849,
      "Russ": 3850,
      "Sl": 3851,
      "Sar": 3852,
      "Sid": 3853,
      "Sit__": 3854,
      "Sounds__": 3855,
      "Since__": 3856,
      "Tu": 3857,
      "Ten__": 3858,
      "Too__": 3859,
      "Var": 3860,
      "Val": 3861,
      "Vince__": 3862,
      "Vict": 3863,
      "Way__": 3864,
      "Wor": 3865,
      "Woo__": 3866,
      "Wells__": 3867,
      "all": 3868,
      "ahh__": 3869,
      "bing__": 3870,
      "bon": 3871,
      "bell__": 3872,
      "bic": 3873,
      "bill__": 3874,
      "boom__": 3875,
      "borrow__": 3876,
      "cli": 3877,
      "cart": 3878,
      "cent": 3879,
      "cig": 3880,
      "cush": 3881,
      "da": 3882,
      "dic": 3883,
      "dear__": 3884,
      "drea": 3885,
      "dying__": 3886,
      "dest": 3887,
      "dark__": 3888,
      "drew__": 3889,
      "dai": 3890,
      "during__": 3891,
      "dressed__": 3892,
      "ele": 3893,
      "emer": 3894,
      "eating__": 3895,
      "fac": 3896,
      "fly__": 3897,
      "fem": 3898,
      "fear__": 3899,
      "fool__": 3900,
      "foc": 3901,
      "flip__": 3902,
      "fancy__": 3903,
      "gl": 3904,
      "gr": 3905,
      "gor": 3906,
      "gre": 3907,
      "grou": 3908,
      "hat__": 3909,
      "hom": 3910,
      "hers__": 3911,
      "hidden__": 3912,
      "handling__": 3913,
      "it": 3914,
      "ju": 3915,
      "jin": 3916,
      "kan": 3917,
      "kitt": 3918,
      "lev": 3919,
      "lets__": 3920,
      "ma__": 3921,
      "mm__": 3922,
      "moon__": 3923,
      "nic": 3924,
      "nar": 3925,
      "nose__": 3926,
      "nerve__": 3927,
      "ooo": 3928,
      "oat": 3929,
      "obo": 3930,
      "oil__": 3931,
      "ps": 3932,
      "pin": 3933,
      "pan": 3934,
      "pen": 3935,
      "pat": 3936,
      "pal__": 3937,
      "pear": 3938,
      "pong__": 3939,
      "pure__": 3940,
      "pick": 3941,
      "rent__": 3942,
      "rich__": 3943,
      "running__": 3944,
      "son": 3945,
      "sat": 3946,
      "sli": 3947,
      "slo": 3948,
      "sort": 3949,
      "skin__": 3950,
      "serve__": 3951,
      "sickn": 3952,
      "slip__": 3953,
      "sisters__": 3954,
      "ty": 3955,
      "ton__": 3956,
      "tem": 3957,
      "test": 3958,
      "tank__": 3959,
      "typ": 3960,
      "uter": 3961,
      "ugly__": 3962,
      "vac": 3963,
      "vir": 3964,
      "vent__": 3965,
      "vase__": 3966,
      "vide": 3967,
      "win": 3968,
      "wra": 3969,
      "wis": 3970,
      "yell__": 3971,
      "_ex": 3972,
      "_eg__": 3973,
      "_eb": 3974,
      "_een": 3975,
      "_equ": 3976,
      "_co": 3977,
      "_cel": 3978,
      "_cel__": 3979,
      "_cess__": 3980,
      "_cep": 3981,
      "_cas": 3982,
      "_cope__": 3983,
      "_aa__": 3984,
      "_ass__": 3985,
      "_ais": 3986,
      "_ager__": 3987,
      "_aise__": 3988,
      "_akes__": 3989,
      "_ago__": 3990,
      "_agne__": 3991,
      "_ues__": 3992,
      "_ury__": 3993,
      "_uck": 3994,
      "_test__": 3995,
      "_ia": 3996,
      "_ild__": 3997,
      "_iri": 3998,
      "_ious__": 3999,
      "_ives__": 4000,
      "_ips__": 4001,
      "_ize__": 4002,
      "_ign": 4003,
      "_ivers": 4004,
      "_night__": 4005,
      "_ners__": 4006,
      "_national__": 4007,
      "_sep": 4008,
      "_sea__": 4009,
      "_hhhh__": 4010,
      "_haps__": 4011,
      "_ost": 4012,
      "_ogra": 4013,
      "_gen": 4014,
      "_gin__": 4015,
      "_gem": 4016,
      "_gative__": 4017,
      "_mer__": 4018,
      "_mmm__": 4019,
      "_mond__": 4020,
      "_mont__": 4021,
      "_meal__": 4022,
      "_minated__": 4023,
      "_por": 4024,
      "_pone__": 4025,
      "_pic__": 4026,
      "_pering__": 4027,
      "_va__": 4028,
      "_vel": 4029,
      "_vision__": 4030,
      "_vels__": 4031,
      "_dac": 4032,
      "_din__": 4033,
      "_dly__": 4034,
      "_dge__": 4035,
      "_dill": 4036,
      "_dom__": 4037,
      "_wed__": 4038,
      "_wns__": 4039,
      "_wyer__": 4040,
      "_kf": 4041,
      "_kle__": 4042,
      "_kles__": 4043,
      "_fer__": 4044,
      "_fely__": 4045,
      "_fic__": 4046,
      "_by__": 4047,
      "_bo__": 4048,
      "_bies__": 4049,
      "_bidden__": 4050,
      "_blic__": 4051,
      "_zel__": 4052,
      "_zled__": 4053,
      "_CH__": 4054,
      "_Dow": 4055,
      "_ND": 4056,
      "thir": 4057,
      "thqu": 4058,
      "threw__": 4059,
      "_ined__": 4060,
      "_inic__": 4061,
      "_eady__": 4062,
      "_eable__": 4063,
      "_ano__": 4064,
      "_onds__": 4065,
      "_oody__": 4066,
      "_ooty__": 4067,
      "_oozled__": 4068,
      "_oma__": 4069,
      "_omin": 4070,
      "_omach__": 4071,
      "_iture__": 4072,
      "_itment__": 4073,
      "known__": 4074,
      "_erm__": 4075,
      "_eries__": 4076,
      "_erves__": 4077,
      "_erence__": 4078,
      "_ores__": 4079,
      "_icing__": 4080,
      "_icago__": 4081,
      "wall__": 4082,
      "waving__": 4083,
      "wash__": 4084,
      "_ards__": 4085,
      "_arett": 4086,
      "_thon__": 4087,
      "_thear": 4088,
      "_thews__": 4089,
      "_ener__": 4090,
      "_enly__": 4091,
      "_enge__": 4092,
      "_enef": 4093,
      "_enever__": 4094,
      "whoe": 4095,
      "whis": 4096,
      "whose__": 4097,
      "beat__": 4098,
      "liking__": 4099,
      "lived__": 4100,
      "limit__": 4101,
      "sto": 4102,
      "stack__": 4103,
      "stage__": 4104,
      "states__": 4105,
      "stealing__": 4106,
      "stomach__": 4107,
      "shame__": 4108,
      "Thur": 4109,
      "Thread__": 4110,
      "_reed__": 4111,
      "_rely__": 4112,
      "_str": 4113,
      "_ste__": 4114,
      "_story__": 4115,
      "_ata__": 4116,
      "_eels__": 4117,
      "_eeze__": 4118,
      "thinkin__": 4119,
      "wanting__": 4120,
      "reac": 4121,
      "docks__": 4122,
      "_rib": 4123,
      "_ric__": 4124,
      "_rific__": 4125,
      "seat__": 4126,
      "send__": 4127,
      "sees__": 4128,
      "gum__": 4129,
      "_eless__": 4130,
      "_elsea__": 4131,
      "_irl__": 4132,
      "_irdest__": 4133,
      "toy__": 4134,
      "toast__": 4135,
      "_ida__": 4136,
      "_ides__": 4137,
      "_idered__": 4138,
      "negative__": 4139,
      "gosh__": 4140,
      "cast__": 4141,
      "camp": 4142,
      "tape__": 4143,
      "taken__": 4144,
      "taught__": 4145,
      "hiking__": 4146,
      "history__": 4147,
      "plea": 4148,
      "plat": 4149,
      "plate__": 4150,
      "sake__": 4151,
      "sale__": 4152,
      "saut": 4153,
      "saves__": 4154,
      "safely__": 4155,
      "_ection__": 4156,
      "_ecture__": 4157,
      "super": 4158,
      "John": 4159,
      "Josep": 4160,
      "loc": 4161,
      "lover__": 4162,
      "loser__": 4163,
      "cha": 4164,
      "chop__": 4165,
      "bal": 4166,
      "Phil__": 4167,
      "somepl": 4168,
      "Chi__": 4169,
      "Chan__": 4170,
      "Chicago__": 4171,
      "Chelsea__": 4172,
      "ind": 4173,
      "_ssie__": 4174,
      "_urt__": 4175,
      "_urity__": 4176,
      "_lio__": 4177,
      "evening__": 4178,
      "til__": 4179,
      "tile__": 4180,
      "worker__": 4181,
      "_ellent__": 4182,
      "_unn": 4183,
      "_unior__": 4184,
      "unless__": 4185,
      "_esh__": 4186,
      "alarm__": 4187,
      "muff": 4188,
      "spo": 4189,
      "speech__": 4190,
      "Phoebs__": 4191,
      "comet__": 4192,
      "combin": 4193,
      "stud": 4194,
      "stuff": 4195,
      "bugs__": 4196,
      "falling__": 4197,
      "_gar__": 4198,
      "law__": 4199,
      "lay": 4200,
      "laminated__": 4201,
      "lawyer__": 4202,
      "could": 4203,
      "bond__": 4204,
      "bother__": 4205,
      "twin__": 4206,
      "twins__": 4207,
      "thous": 4208,
      "_bot": 4209,
      "_artments__": 4210,
      "naming__": 4211,
      "pressure__": 4212,
      "prefer__": 4213,
      "swimm": 4214,
      "_efs__": 4215,
      "_umb__": 4216,
      "tru": 4217,
      "energy__": 4218,
      "hollow__": 4219,
      "pain": 4220,
      "paying__": 4221,
      "pages__": 4222,
      "fire": 4223,
      "film__": 4224,
      "fift": 4225,
      "field__": 4226,
      "_made__": 4227,
      "_madill": 4228,
      "problem": 4229,
      "novels__": 4230,
      "_uln": 4231,
      "_ults__": 4232,
      "Step": 4233,
      "Steady__": 4234,
      "conqu": 4235,
      "conven": 4236,
      "dial__": 4237,
      "forbidden__": 4238,
      "gas__": 4239,
      "gala__": 4240,
      "leather__": 4241,
      "scru": 4242,
      "section__": 4243,
      "seconds__": 4244,
      "security__": 4245,
      "poking__": 4246,
      "points__": 4247,
      "pardon__": 4248,
      "_ilities__": 4249,
      "_ioni__": 4250,
      "_ash__": 4251,
      "fund__": 4252,
      "Mac__": 4253,
      "phot": 4254,
      "phys": 4255,
      "clos": 4256,
      "closed__": 4257,
      "clowns__": 4258,
      "heading__": 4259,
      "heaven__": 4260,
      "_gei__": 4261,
      "Almost__": 4262,
      "_evision__": 4263,
      "_illed__": 4264,
      "brown": 4265,
      "brothers__": 4266,
      "breast__": 4267,
      "breasts__": 4268,
      "breathe__": 4269,
      "breakf": 4270,
      "cramp__": 4271,
      "apartments__": 4272,
      "black": 4273,
      "bloody__": 4274,
      "bringing__": 4275,
      "support__": 4276,
      "death__": 4277,
      "stars__": 4278,
      "staring__": 4279,
      "partner__": 4280,
      "complem": 4281,
      "court__": 4282,
      "Doctor__": 4283,
      "Plus__": 4284,
      "smile__": 4285,
      "smooth__": 4286,
      "cru": 4287,
      "cracking__": 4288,
      "six": 4289,
      "siad": 4290,
      "forgive__": 4291,
      "express": 4292,
      "expensive__": 4293,
      "Lily__": 4294,
      "drugs__": 4295,
      "drums__": 4296,
      "fling__": 4297,
      "flesh__": 4298,
      "Janine__": 4299,
      "club__": 4300,
      "clinic__": 4301,
      "finals__": 4302,
      "finished__": 4303,
      "reserv": 4304,
      "results__": 4305,
      "carry__": 4306,
      "cards__": 4307,
      "imposs": 4308,
      "rude__": 4309,
      "international__": 4310,
      "applic": 4311,
      "gradu": 4312,
      "opening__": 4313,
      "puck__": 4314,
      "puzz": 4315,
      "pulling__": 4316,
      "public__": 4317,
      "beach__": 4318,
      "tells__": 4319,
      "exciting__": 4320,
      "_bbing__": 4321,
      "musician__": 4322,
      "muscles__": 4323,
      "giant__": 4324,
      "given__": 4325,
      "gives__": 4326,
      "duties__": 4327,
      "red": 4328,
      "requ": 4329,
      "road__": 4330,
      "_vix__": 4331,
      "hurry__": 4332,
      "planning__": 4333,
      "admit__": 4334,
      "manager__": 4335,
      "rain__": 4336,
      "raise__": 4337,
      "_raction__": 4338,
      "showed__": 4339,
      "insist__": 4340,
      "insane__": 4341,
      "France__": 4342,
      "Franc": 4343,
      "classy__": 4344,
      "decision__": 4345,
      "sweeping__": 4346,
      "Every__": 4347,
      "_ights__": 4348,
      "perform__": 4349,
      "disgu": 4350,
      "_cious__": 4351,
      "Excellent__": 4352,
      "Only__": 4353,
      "_aurs__": 4354,
      "desig": 4355,
      "_antly__": 4356,
      "strength__": 4357,
      "Intern": 4358,
      "join__": 4359,
      "ord": 4360,
      "terrific__": 4361,
      "_ressing__": 4362,
      "Spacec": 4363,
      "Sperm__": 4364,
      "freaking__": 4365,
      "goodbye__": 4366,
      "upstairs__": 4367,
      "_agi__": 4368,
      "_ages__": 4369,
      "annivers": 4370,
      "Guy__": 4371,
      "Guess__": 4372,
      "awful__": 4373,
      "aware__": 4374,
      "blame__": 4375,
      "fruit__": 4376,
      "hungry__": 4377,
      "_iches__": 4378,
      "_entists__": 4379,
      "answering__": 4380,
      "pregnancy__": 4381,
      "dropped__": 4382,
      "drapes__": 4383,
      "defin": 4384,
      "_fortunately__": 4385,
      "built__": 4386,
      "Bugs__": 4387,
      "Boy__": 4388,
      "Both__": 4389,
      "Julio__": 4390,
      "follow": 4391,
      "viol": 4392,
      "Scot": 4393,
      "burning__": 4394,
      "_imal__": 4395,
      "_ipped__": 4396,
      "_incess__": 4397,
      "basically__": 4398,
      "boyfriends__": 4399,
      "blond__": 4400,
      "blocks__": 4401,
      "certain": 4402,
      "cervix__": 4403,
      "keeping__": 4404,
      "favour__": 4405,
      "notch__": 4406,
      "noticed__": 4407,
      "_ushed__": 4408,
      "Toby__": 4409,
      "assum": 4410,
      "borrowed__": 4411,
      "snack__": 4412,
      "_stein__": 4413,
      "collection__": 4414,
      "possibly__": 4415,
      "pieces__": 4416,
      "Ameri__": 4417,
      "Americ": 4418,
      "America__": 4419,
      "Dana__": 4420,
      "Marcel__": 4421,
      "imagin": 4422,
      "_ify__": 4423,
      "_ingly__": 4424,
      "waiter__": 4425,
      "_thern__": 4426,
      "_elethon__": 4427,
      "_ectr": 4428,
      "engagem": 4429,
      "conference__": 4430,
      "healthy__": 4431,
      "Island__": 4432,
      "Jamie__": 4433,
      "Kristen__": 4434,
      "Kristin__": 4435,
      "peeking__": 4436,
      "suddenly__": 4437,
      "color__": 4438,
      "advice__": 4439,
      "attractive__": 4440,
      "obvious__": 4441,
      "Brown__": 4442,
      "McDow": 4443,
      "actors__": 4444,
      "barely__": 4445,
      "doub": 4446,
      "hero__": 4447,
      "lines__": 4448,
      "return__": 4449,
      "retract__": 4450,
      "_reeze__": 4451,
      "uncomfortable__": 4452,
      "drinks__": 4453,
      "impression__": 4454,
      "sandwiches__": 4455,
      "!!!!!": 4456,
      "Adam__": 4457,
      "Awww__": 4458,
      "Cassie__": 4459,
      "Cups__": 4460,
      "Forget__": 4461,
      "Goodac": 4462,
      "Smelly__": 4463,
      "agreed__": 4464,
      "groc": 4465,
      "heat__": 4466,
      "jump__": 4467,
      "jumping__": 4468,
      "ocean__": 4469,
      "squeeze__": 4470,
      "yelling__": 4471,
      "young__": 4472,
      "knocking__": 4473,
      "knocked__": 4474,
      "stain__": 4475,
      "staying__": 4476,
      "_rect__": 4477,
      "_tionary__": 4478,
      "labor__": 4479,
      "pretending__": 4480,
      "considered__": 4481,
      "conscious__": 4482,
      "Magioni__": 4483,
      "critic__": 4484,
      "Barcel": 4485,
      "Better__": 4486,
      "Howie__": 4487,
      "afford__": 4488,
      "beard__": 4489,
      "flea__": 4490,
      "homemade__": 4491,
      "issue__": 4492,
      "license__": 4493,
      "natural__": 4494,
      "ourselves__": 4495,
      "popular__": 4496,
      "_luding__": 4497,
      "_fied__": 4498,
      "semi__": 4499,
      "magic__": 4500,
      "commitment__": 4501,
      "screwed__": 4502,
      "tomato__": 4503,
      "smoke__": 4504,
      "sign__": 4505,
      "privacy__": 4506,
      "neighbors__": 4507,
      "?!\"__": 4508,
      "Bamboozled__": 4509,
      "Calm__": 4510,
      "Heads__": 4511,
      "Mindy__": 4512,
      "Matthews__": 4513,
      "Noooo__": 4514,
      "Sergei__": 4515,
      "Secret__": 4516,
      "Tomorrow__": 4517,
      "Zelner__": 4518,
      "butt__": 4519,
      "circles__": 4520,
      "credit__": 4521,
      "fourth__": 4522,
      "greatest__": 4523,
      "glass__": 4524,
      "hypothetically__": 4525,
      "normal__": 4526,
      "odds__": 4527,
      "poem__": 4528,
      "recipe__": 4529,
      "television__": 4530,
      "_ltim": 4531,
      "_garoo__": 4532,
      "towel__": 4533,
      "mascul": 4534,
      "evaluation__": 4535,
      "commercial__": 4536,
      "friendly__": 4537,
      "_leontology__": 4538,
      "director__": 4539,
      "potat": 4540,
      "puppet__": 4541,
      "schedule__": 4542,
      "specifics__": 4543,
      "instincts__": 4544,
      "review__": 4545,
      "misunderstood__": 4546,
      "furniture__": 4547,
      "lifetime__": 4548,
      "responsibilities__": 4549,
      "concentrate__": 4550,
      "gentlemen__": 4551,
      "appointment__": 4552,
      "Basically__": 4553,
      "Bapstein__": 4554,
      "Begley__": 4555,
      "Definitely__": 4556,
      "Estelle__": 4557,
      "Geez__": 4558,
      "Gali__": 4559,
      "Gimme__": 4560,
      "Heckles__": 4561,
      "Naked__": 4562,
      "Oberman__": 4563,
      "Pizza__": 4564,
      "Paris__": 4565,
      "Raymond__": 4566,
      "Sidney__": 4567,
      "Varrrrr": 4568,
      "century__": 4569,
      "cigarett": 4570,
      "dama": 4571,
      "dictionary__": 4572,
      "eleven__": 4573,
      "emergen": 4574,
      "group__": 4575,
      "itself__": 4576,
      "kangaroo__": 4577,
      "kitty__": 4578,
      "narrowed__": 4579,
      "oatmeal__": 4580,
      "oboe__": 4581,
      "psy": 4582,
      "pearls__": 4583,
      "sorta__": 4584,
      "sickness__": 4585,
      "type__": 4586,
      "typical__": 4587,
      "uterus__": 4588,
      "thirsty__": 4589,
      "thquirt__": 4590,
      "_theart__": 4591,
      "whoever__": 4592,
      "whispering__": 4593,
      "sauti__": 4594,
      "someplace__": 4595,
      "combination__": 4596,
      "coulda__": 4597,
      "fifteen__": 4598,
      "_madillo__": 4599,
      "problems__": 4600,
      "Stephan": 4601,
      "scrud__": 4602,
      "breakfast__": 4603,
      "siadic__": 4604,
      "impossible__": 4605,
      "disgusting__": 4606,
      "Spacecamp__": 4607,
      "following__": 4608,
      "certainly__": 4609,
      "engagement__": 4610,
      "McDowell__": 4611,
      "Goodacre__": 4612,
      "Barcelona__": 4613,
      "emergency__": 4614,
      "!’__": 4615,
      "'...__": 4616,
      ".,__": 4617,
      ".!__": 4618,
      "18__": 4619,
      "11": 4620,
      "28__": 4621,
      "23__": 4622,
      "22__": 4623,
      "35__": 4624,
      "33__": 4625,
      "45__": 4626,
      "48__": 4627,
      "41__": 4628,
      "76__": 4629,
      "74__": 4630,
      "80__": 4631,
      "93__": 4632,
      "Ac": 4633,
      "An__": 4634,
      "At": 4635,
      "At__": 4636,
      "Af": 4637,
      "AT": 4638,
      "Aar": 4639,
      "Aga": 4640,
      "Ale": 4641,
      "Aven": 4642,
      "Abot": 4643,
      "Bea": 4644,
      "Bet__": 4645,
      "Bat": 4646,
      "Back__": 4647,
      "Brea": 4648,
      "Bab": 4649,
      "Bond__": 4650,
      "Band__": 4651,
      "Bunny__": 4652,
      "Bird__": 4653,
      "Bitch__": 4654,
      "Back": 4655,
      "Ball__": 4656,
      "Burn__": 4657,
      "Cin": 4658,
      "Can": 4659,
      "Cor": 4660,
      "Cel": 4661,
      "Cra": 4662,
      "Cli": 4663,
      "Cute__": 4664,
      "Cool__": 4665,
      "Cap": 4666,
      "De": 4667,
      "Du__": 4668,
      "Don": 4669,
      "Day__": 4670,
      "Doo": 4671,
      "Dor": 4672,
      "Dis": 4673,
      "Days__": 4674,
      "Dina__": 4675,
      "Ea": 4676,
      "Er": 4677,
      "Ela": 4678,
      "Fo": 4679,
      "Fin": 4680,
      "Fight__": 4681,
      "Fre": 4682,
      "Flo": 4683,
      "Fab": 4684,
      "Funny__": 4685,
      "Figh": 4686,
      "Feels__": 4687,
      "Freeze__": 4688,
      "Gl": 4689,
      "GO": 4690,
      "Gary__": 4691,
      "Glad__": 4692,
      "Grandmother__": 4693,
      "Gina__": 4694,
      "Girl__": 4695,
      "Han": 4696,
      "Hot__": 4697,
      "Hor": 4698,
      "Har": 4699,
      "Hur": 4700,
      "Hun": 4701,
      "Ham": 4702,
      "Hol": 4703,
      "Hmmm__": 4704,
      "Ir": 4705,
      "Ill": 4706,
      "Jo__": 4707,
      "Jor": 4708,
      "Jew__": 4709,
      "Jap": 4710,
      "Jenn": 4711,
      "Kat": 4712,
      "Kro": 4713,
      "Kate__": 4714,
      "Lor": 4715,
      "Light__": 4716,
      "Lat": 4717,
      "Lau": 4718,
      "Lem": 4719,
      "Long__": 4720,
      "Left__": 4721,
      "Lad": 4722,
      "Los__": 4723,
      "Love__": 4724,
      "Mom": 4725,
      "Mel__": 4726,
      "Mes": 4727,
      "Mart": 4728,
      "Mil": 4729,
      "Mother__": 4730,
      "Mia__": 4731,
      "Nel": 4732,
      "Nine__": 4733,
      "Nest": 4734,
      "Need__": 4735,
      "Or": 4736,
      "Ob": 4737,
      "Ole__": 4738,
      "Off": 4739,
      "Ooooo": 4740,
      "Otherwise__": 4741,
      "Pu": 4742,
      "Ping__": 4743,
      "Pat": 4744,
      "Pick__": 4745,
      "Pill": 4746,
      "Pet": 4747,
      "Rh": 4748,
      "Ry": 4749,
      "Res": 4750,
      "Ram": 4751,
      "Ronn": 4752,
      "SA": 4753,
      "Sing__": 4754,
      "Sid__": 4755,
      "Sand": 4756,
      "Sur": 4757,
      "Sch": 4758,
      "Sir__": 4759,
      "Squ": 4760,
      "Sup__": 4761,
      "Singing__": 4762,
      "Simm": 4763,
      "Soph": 4764,
      "Tou": 4765,
      "Try__": 4766,
      "Tom__": 4767,
      "Tall__": 4768,
      "Ted": 4769,
      "Terry__": 4770,
      "Tooty__": 4771,
      "Uk": 4772,
      "Use__": 4773,
      "Used__": 4774,
      "Uma__": 4775,
      "Ugly__": 4776,
      "Ultim": 4777,
      "Vi": 4778,
      "Vic__": 4779,
      "Won": 4780,
      "Wom": 4781,
      "Wee": 4782,
      "Wel": 4783,
      "Wes": 4784,
      "West": 4785,
      "Want__": 4786,
      "Will": 4787,
      "Wester": 4788,
      "Water__": 4789,
      "Watch__": 4790,
      "Yi": 4791,
      "Yuh__": 4792,
      "am": 4793,
      "ais": 4794,
      "adding__": 4795,
      "amb": 4796,
      "aunt__": 4797,
      "ahead__": 4798,
      "ban": 4799,
      "bat": 4800,
      "bear__": 4801,
      "batch__": 4802,
      "benef": 4803,
      "ce": 4804,
      "co__": 4805,
      "cre": 4806,
      "cro": 4807,
      "cook__": 4808,
      "crea": 4809,
      "cle": 4810,
      "cried__": 4811,
      "cul": 4812,
      "crow": 4813,
      "cuter__": 4814,
      "de__": 4815,
      "ding__": 4816,
      "dies__": 4817,
      "dare__": 4818,
      "dess": 4819,
      "dress": 4820,
      "day": 4821,
      "domin": 4822,
      "data__": 4823,
      "dunn": 4824,
      "em": 4825,
      "ero": 4826,
      "ess": 4827,
      "eli": 4828,
      "eff": 4829,
      "equ": 4830,
      "era__": 4831,
      "eaten__": 4832,
      "epic__": 4833,
      "fre": 4834,
      "fish__": 4835,
      "foun": 4836,
      "fant": 4837,
      "fella__": 4838,
      "fits__": 4839,
      "fellow__": 4840,
      "ge": 4841,
      "gee": 4842,
      "glo": 4843,
      "grow__": 4844,
      "growing__": 4845,
      "gang__": 4846,
      "hint__": 4847,
      "hired__": 4848,
      "hern": 4849,
      "is": 4850,
      "imm": 4851,
      "ign": 4852,
      "iced__": 4853,
      "ja": 4854,
      "jet__": 4855,
      "jew": 4856,
      "junior__": 4857,
      "kin": 4858,
      "kay__": 4859,
      "lo__": 4860,
      "lar": 4861,
      "landl": 4862,
      "lum": 4863,
      "loun": 4864,
      "lens__": 4865,
      "lecture__": 4866,
      "mi": 4867,
      "mere__": 4868,
      "mer": 4869,
      "mor": 4870,
      "men": 4871,
      "mood__": 4872,
      "mill__": 4873,
      "mmm__": 4874,
      "moun": 4875,
      "mouse__": 4876,
      "mention__": 4877,
      "nan": 4878,
      "nut__": 4879,
      "nor": 4880,
      "none__": 4881,
      "nut": 4882,
      "now": 4883,
      "nuc": 4884,
      "op__": 4885,
      "oi__": 4886,
      "ori": 4887,
      "ooh__": 4888,
      "overs": 4889,
      "oft": 4890,
      "pl__": 4891,
      "py": 4892,
      "pea": 4893,
      "pre__": 4894,
      "pen__": 4895,
      "pet__": 4896,
      "pin__": 4897,
      "pill__": 4898,
      "peep__": 4899,
      "pile__": 4900,
      "punch__": 4901,
      "punk__": 4902,
      "push__": 4903,
      "power__": 4904,
      "row__": 4905,
      "rand": 4906,
      "ris": 4907,
      "rough__": 4908,
      "rad": 4909,
      "round__": 4910,
      "rout": 4911,
      "ringing__": 4912,
      "rented__": 4913,
      "rushed__": 4914,
      "sat__": 4915,
      "sit": 4916,
      "silk__": 4917,
      "soph": 4918,
      "search__": 4919,
      "th__": 4920,
      "too": 4921,
      "tan__": 4922,
      "tee": 4923,
      "tin__": 4924,
      "trea": 4925,
      "telethon__": 4926,
      "uhh__": 4927,
      "urg": 4928,
      "vo": 4929,
      "von__": 4930,
      "vic": 4931,
      "vision__": 4932,
      "voice__": 4933,
      "vuln": 4934,
      "wu": 4935,
      "wa__": 4936,
      "woo": 4937,
      "wind__": 4938,
      "woo__": 4939,
      "weak__": 4940,
      "wished__": 4941,
      "yay__": 4942,
      "’!__": 4943,
      "’!!__": 4944,
      "…\"__": 4945,
      "_eo__": 4946,
      "_ec__": 4947,
      "_eat__": 4948,
      "_ees__": 4949,
      "_eff": 4950,
      "_eous__": 4951,
      "_etic__": 4952,
      "_eered__": 4953,
      "_egr": 4954,
      "_cing__": 4955,
      "_cri": 4956,
      "_cur": 4957,
      "_cum": 4958,
      "_corn__": 4959,
      "_cluding__": 4960,
      "_lk__": 4961,
      "_lé__": 4962,
      "_lar": 4963,
      "_lin__": 4964,
      "_lit__": 4965,
      "_lear__": 4966,
      "_lus": 4967,
      "_lantic__": 4968,
      "_ak__": 4969,
      "_aay__": 4970,
      "_ali": 4971,
      "_aff": 4972,
      "_aved__": 4973,
      "_alie__": 4974,
      "_aire__": 4975,
      "_rk": 4976,
      "_ray__": 4977,
      "_roo": 4978,
      "_ror__": 4979,
      "_rick__": 4980,
      "_rum__": 4981,
      "_ug": 4982,
      "_uth": 4983,
      "_ume__": 4984,
      "_uff": 4985,
      "_ution__": 4986,
      "_uitive__": 4987,
      "_ton__": 4988,
      "_tle__": 4989,
      "_tin__": 4990,
      "_tal__": 4991,
      "_table__": 4992,
      "_teen__": 4993,
      "_tley__": 4994,
      "_tics__": 4995,
      "_tured__": 4996,
      "_turing__": 4997,
      "_tball__": 4998,
      "_tures__": 4999,
      "_traction__": 5000,
      "_iet__": 5001,
      "_iry__": 5002,
      "_ime__": 5003,
      "_igh__": 5004,
      "_iving__": 5005,
      "_iev": 5006,
      "_ift__": 5007,
      "_ized__": 5008,
      "_nn__": 5009,
      "_no": 5010,
      "_ng": 5011,
      "_nate__": 5012,
      "_nab": 5013,
      "_nic__": 5014,
      "_nequ": 5015,
      "_naise__": 5016,
      "_sk__": 5017,
      "_sy__": 5018,
      "_sit": 5019,
      "_sant__": 5020,
      "_sons__": 5021,
      "_sball__": 5022,
      "_sures__": 5023,
      "_ha__": 5024,
      "_hes__": 5025,
      "_hood__": 5026,
      "_house__": 5027,
      "_hile__": 5028,
      "_od__": 5029,
      "_og__": 5030,
      "_oll": 5031,
      "_ois__": 5032,
      "_oons__": 5033,
      "_otten__": 5034,
      "_otion": 5035,
      "_git": 5036,
      "_got__": 5037,
      "_gan__": 5038,
      "_gie__": 5039,
      "_gies__": 5040,
      "_gise__": 5041,
      "_gress__": 5042,
      "_gists__": 5043,
      "_mb__": 5044,
      "_man": 5045,
      "_men__": 5046,
      "_mac": 5047,
      "_mitt": 5048,
      "_mous__": 5049,
      "_mself__": 5050,
      "_ment": 5051,
      "_meg__": 5052,
      "_par": 5053,
      "_ple": 5054,
      "_psed__": 5055,
      "_ption__": 5056,
      "_posed__": 5057,
      "_pants__": 5058,
      "_port__": 5059,
      "_pos": 5060,
      "_pist__": 5061,
      "_pect": 5062,
      "_vin__": 5063,
      "_vel__": 5064,
      "_vings__": 5065,
      "_vas__": 5066,
      "_xed__": 5067,
      "_xine__": 5068,
      "_dn__": 5069,
      "_dy": 5070,
      "_doo": 5071,
      "_dro": 5072,
      "_del": 5073,
      "_dles__": 5074,
      "_down__": 5075,
      "_dog__": 5076,
      "_wl__": 5077,
      "_wer__": 5078,
      "_woo__": 5079,
      "_wards__": 5080,
      "_kly__": 5081,
      "_kward__": 5082,
      "_fer": 5083,
      "_fle__": 5084,
      "_fire__": 5085,
      "_yn": 5086,
      "_yy": 5087,
      "_yfully__": 5088,
      "_bic": 5089,
      "_book__": 5090,
      "_bit__": 5091,
      "_back__": 5092,
      "_bster__": 5093,
      "_bany__": 5094,
      "_zin": 5095,
      "_zie__": 5096,
      "_zers__": 5097,
      "_....__": 5098,
      "_OO": 5099,
      "_ON__": 5100,
      "_ju": 5101,
      "_37__": 5102,
      "_EY__": 5103,
      "_ICH__": 5104,
      "_ée__": 5105,
      "_WICH__": 5106,
      "thin__": 5107,
      "thumb__": 5108,
      "_ink": 5109,
      "_inf": 5110,
      "_iner__": 5111,
      "_inge__": 5112,
      "_inary__": 5113,
      "_inist__": 5114,
      "_inian__": 5115,
      "_inois__": 5116,
      "_eath__": 5117,
      "_oulo": 5118,
      "_anoid__": 5119,
      "_oning__": 5120,
      "_oned__": 5121,
      "_onic__": 5122,
      "_onetically__": 5123,
      "_onda__": 5124,
      "hated__": 5125,
      "hasn__": 5126,
      "hamp": 5127,
      "hamb": 5128,
      "hammer__": 5129,
      "hairy__": 5130,
      "havin__": 5131,
      "hadn__": 5132,
      "_ool": 5133,
      "_itz__": 5134,
      "_itation__": 5135,
      "_itney__": 5136,
      "_itious__": 5137,
      "_llies__": 5138,
      "_llets__": 5139,
      "_llins__": 5140,
      "knuck": 5141,
      "knives__": 5142,
      "_ghting__": 5143,
      "_ero__": 5144,
      "_eral__": 5145,
      "_erable__": 5146,
      "_ergies__": 5147,
      "_oring__": 5148,
      "_orms__": 5149,
      "_oria__": 5150,
      "_orida__": 5151,
      "_icer__": 5152,
      "_ices__": 5153,
      "_icked__": 5154,
      "_icis": 5155,
      "_icity__": 5156,
      "_icated__": 5157,
      "wax__": 5158,
      "waking__": 5159,
      "wasting__": 5160,
      "_arp__": 5161,
      "_arding__": 5162,
      "_arius__": 5163,
      "_armac": 5164,
      "_thetic__": 5165,
      "_acle__": 5166,
      "_accep": 5167,
      "_enny__": 5168,
      "_ended__": 5169,
      "whip__": 5170,
      "whom__": 5171,
      "wheel__": 5172,
      "whenever__": 5173,
      "bel": 5174,
      "beg__": 5175,
      "beep": 5176,
      "belt__": 5177,
      "beef__": 5178,
      "begin": 5179,
      "begin__": 5180,
      "lip__": 5181,
      "liqu": 5182,
      "lift__": 5183,
      "lighter__": 5184,
      "stat": 5185,
      "stro": 5186,
      "state__": 5187,
      "stol": 5188,
      "station__": 5189,
      "stare__": 5190,
      "steak__": 5191,
      "sticks__": 5192,
      "steal__": 5193,
      "shee": 5194,
      "shir": 5195,
      "short": 5196,
      "shake__": 5197,
      "shad": 5198,
      "shorts__": 5199,
      "sheer__": 5200,
      "sharp__": 5201,
      "Thom": 5202,
      "Things__": 5203,
      "_reh": 5204,
      "_state__": 5205,
      "_stanc": 5206,
      "_stach": 5207,
      "_stead__": 5208,
      "_atter": 5209,
      "_atrac": 5210,
      "with": 5211,
      "_eedy__": 5212,
      "_eeeen__": 5213,
      "_eehouse__": 5214,
      "_eezers__": 5215,
      "reached__": 5216,
      "reasons__": 5217,
      "doct": 5218,
      "_rie__": 5219,
      "_rill__": 5220,
      "_rog": 5221,
      "_roduc": 5222,
      "sea__": 5223,
      "sett": 5224,
      "seven": 5225,
      "sells__": 5226,
      "guts__": 5227,
      "guide__": 5228,
      "gumb": 5229,
      "aband": 5230,
      "_elv": 5231,
      "_ires__": 5232,
      "_irly__": 5233,
      "_tte__": 5234,
      "_ttish__": 5235,
      "male__": 5236,
      "maga": 5237,
      "mail": 5238,
      "makin__": 5239,
      "master__": 5240,
      "massa": 5241,
      "_idence__": 5242,
      "Whoo__": 5243,
      "Whatever__": 5244,
      "Whitney__": 5245,
      "neat__": 5246,
      "_ppers__": 5247,
      "gogo__": 5248,
      "goalie__": 5249,
      "cal": 5250,
      "cable__": 5251,
      "cakes__": 5252,
      "casting__": 5253,
      "caught__": 5254,
      "tar__": 5255,
      "taller__": 5256,
      "anti": 5257,
      "ankle__": 5258,
      "animal__": 5259,
      "hip__": 5260,
      "himself__": 5261,
      "meaning__": 5262,
      "plun": 5263,
      "plus__": 5264,
      "pled": 5265,
      "plates__": 5266,
      "sali": 5267,
      "salt__": 5268,
      "sailing__": 5269,
      "sayin__": 5270,
      "_ective__": 5271,
      "sun__": 5272,
      "sum__": 5273,
      "suit__": 5274,
      "suite__": 5275,
      "suck": 5276,
      "summer__": 5277,
      "sugar__": 5278,
      "sulk__": 5279,
      "Joan__": 5280,
      "Joanna__": 5281,
      "_ands__": 5282,
      "loan": 5283,
      "loan__": 5284,
      "lock__": 5285,
      "lotion__": 5286,
      "lobby__": 5287,
      "lobster__": 5288,
      "cho": 5289,
      "chin__": 5290,
      "ches": 5291,
      "chess__": 5292,
      "chest__": 5293,
      "chew": 5294,
      "chairs__": 5295,
      "chefs__": 5296,
      "bag": 5297,
      "bald__": 5298,
      "bags__": 5299,
      "balls__": 5300,
      "_rally__": 5301,
      "_rass": 5302,
      "_rainian__": 5303,
      "Phi": 5304,
      "Chase__": 5305,
      "Champ": 5306,
      "Chatrac": 5307,
      "moon": 5308,
      "motion__": 5309,
      "_tiv": 5310,
      "Going__": 5311,
      "_ema__": 5312,
      "_ember__": 5313,
      "theme__": 5314,
      "ing__": 5315,
      "_ssion__": 5316,
      "_ssages__": 5317,
      "_urger__": 5318,
      "_lier__": 5319,
      "_lish__": 5320,
      "tiles__": 5321,
      "worn__": 5322,
      "worrying__": 5323,
      "_ellation__": 5324,
      "_une__": 5325,
      "_uns__": 5326,
      "_ung__": 5327,
      "_opoulo": 5328,
      "Monet__": 5329,
      "Monana__": 5330,
      "unn": 5331,
      "unit__": 5332,
      "unus": 5333,
      "unatt": 5334,
      "unif": 5335,
      "unagi__": 5336,
      "unaccep": 5337,
      "_esday__": 5338,
      "_cting__": 5339,
      "_ctly__": 5340,
      "happiness__": 5341,
      "_isc": 5342,
      "_ison__": 5343,
      "spat__": 5344,
      "spill__": 5345,
      "sple": 5346,
      "spook": 5347,
      "spelled__": 5348,
      "spiri": 5349,
      "spilled__": 5350,
      "comin__": 5351,
      "_reaming__": 5352,
      "study__": 5353,
      "bum__": 5354,
      "buried__": 5355,
      "bubb": 5356,
      "fab": 5357,
      "fall": 5358,
      "faster__": 5359,
      "famous__": 5360,
      "fairly__": 5361,
      "_loded__": 5362,
      "became__": 5363,
      "lap__": 5364,
      "laid__": 5365,
      "lamp__": 5366,
      "lapsed__": 5367,
      "_cher__": 5368,
      "_chit": 5369,
      "_chures__": 5370,
      "marks__": 5371,
      "marrying__": 5372,
      "_ests__": 5373,
      "_estants__": 5374,
      "_ffeehouse__": 5375,
      "boles__": 5376,
      "boarding__": 5377,
      "_istle__": 5378,
      "_isticated__": 5379,
      "Should__": 5380,
      "naps__": 5381,
      "navy__": 5382,
      "cold__": 5383,
      "cock": 5384,
      "cobb__": 5385,
      "coffeehouse__": 5386,
      "pee__": 5387,
      "fridge__": 5388,
      "prof": 5389,
      "prove__": 5390,
      "profess": 5391,
      "project__": 5392,
      "propose__": 5393,
      "proposed__": 5394,
      "feeding__": 5395,
      "intell": 5396,
      "intense__": 5397,
      "integr": 5398,
      "intuitive__": 5399,
      "introduc": 5400,
      "exact__": 5401,
      "exist__": 5402,
      "swing__": 5403,
      "sweep__": 5404,
      "swans__": 5405,
      "ought": 5406,
      "web": 5407,
      "weirdest__": 5408,
      "_ummy__": 5409,
      "_owing__": 5410,
      "truck__": 5411,
      "queen__": 5412,
      "quiet__": 5413,
      "_ettin__": 5414,
      "end": 5415,
      "hopping__": 5416,
      "hogging__": 5417,
      "loos": 5418,
      "lookin__": 5419,
      "paints__": 5420,
      "paste__": 5421,
      "everyday__": 5422,
      "filing__": 5423,
      "_derelly__": 5424,
      "_derdog__": 5425,
      "_ulous__": 5426,
      "Sting__": 5427,
      "Stick__": 5428,
      "Stry": 5429,
      "Staten__": 5430,
      "const": 5431,
      "congratulations__": 5432,
      "direc": 5433,
      "diaper__": 5434,
      "division__": 5435,
      "fort": 5436,
      "forty__": 5437,
      "league__": 5438,
      "scare__": 5439,
      "science__": 5440,
      "secure__": 5441,
      "Waxine__": 5442,
      "pol": 5443,
      "post__": 5444,
      "poet__": 5445,
      "mint__": 5446,
      "minister__": 5447,
      "perhaps__": 5448,
      "parade__": 5449,
      "paranoid__": 5450,
      "_ilant": 5451,
      "_ionaire__": 5452,
      "written__": 5453,
      "_asy__": 5454,
      "_abais": 5455,
      "fully__": 5456,
      "Made__": 5457,
      "pharmac": 5458,
      "helps__": 5459,
      "helping__": 5460,
      "helped__": 5461,
      "_using__": 5462,
      "_enting__": 5463,
      "_entine__": 5464,
      "_entally__": 5465,
      "_entical__": 5466,
      "caller__": 5467,
      "messed__": 5468,
      "messing__": 5469,
      "messages__": 5470,
      "_icky__": 5471,
      "Alice__": 5472,
      "Also__": 5473,
      "Albany__": 5474,
      "betting__": 5475,
      "ideas__": 5476,
      "identical__": 5477,
      "_illa__": 5478,
      "_illabais": 5479,
      "brochures__": 5480,
      "bread": 5481,
      "breath__": 5482,
      "crab__": 5483,
      "tons__": 5484,
      "toner__": 5485,
      "apr": 5486,
      "apart__": 5487,
      "blow__": 5488,
      "blood__": 5489,
      "blouse__": 5490,
      "kiddin__": 5491,
      "slow__": 5492,
      "slut__": 5493,
      "slight__": 5494,
      "slide__": 5495,
      "bran": 5496,
      "broom__": 5497,
      "brings__": 5498,
      "_eta__": 5499,
      "supply__": 5500,
      "dead": 5501,
      "dealing__": 5502,
      "electr": 5503,
      "starving__": 5504,
      "Another__": 5505,
      "Andie__": 5506,
      "Annab": 5507,
      "latte__": 5508,
      "partying__": 5509,
      "_vert__": 5510,
      "compla": 5511,
      "complic": 5512,
      "compreh": 5513,
      "Place__": 5514,
      "match__": 5515,
      "matern": 5516,
      "smelly__": 5517,
      "smells__": 5518,
      "_shine__": 5519,
      "_mmmm": 5520,
      "cran": 5521,
      "crust__": 5522,
      "crum": 5523,
      "dingy__": 5524,
      "price__": 5525,
      "princess__": 5526,
      "sissy__": 5527,
      "seemed__": 5528,
      "forgetting__": 5529,
      "forgotten__": 5530,
      "picnic__": 5531,
      "exploded__": 5532,
      "flicks__": 5533,
      "flatter": 5534,
      "hardly__": 5535,
      "clearly__": 5536,
      "finds__": 5537,
      "finger__": 5538,
      "research__": 5539,
      "carrying__": 5540,
      "career__": 5541,
      "carefully__": 5542,
      "appl": 5543,
      "apple__": 5544,
      "appro": 5545,
      "appears__": 5546,
      "grass__": 5547,
      "gravy__": 5548,
      "puff__": 5549,
      "_adway__": 5550,
      "_tastic__": 5551,
      "_gio__": 5552,
      "_gible__": 5553,
      "beating__": 5554,
      "tellin__": 5555,
      "Exp": 5556,
      "_teresting__": 5557,
      "_bba__": 5558,
      "_bbie__": 5559,
      "_bbies__": 5560,
      "canvas__": 5561,
      "difficul": 5562,
      "arm__": 5563,
      "arre": 5564,
      "archit": 5565,
      "ducks__": 5566,
      "rejo": 5567,
      "rejec": 5568,
      "reject__": 5569,
      "robe__": 5570,
      "trad": 5571,
      "training__": 5572,
      "playfully__": 5573,
      "Hamm__": 5574,
      "_viously__": 5575,
      "cube__": 5576,
      "cubic": 5577,
      "_ouses__": 5578,
      "planned__": 5579,
      "easily__": 5580,
      "manage__": 5581,
      "mania": 5582,
      "pipe__": 5583,
      "rais": 5584,
      "rapist__": 5585,
      "related__": 5586,
      "soft": 5587,
      "soda__": 5588,
      "_randfa": 5589,
      "Careful__": 5590,
      "inspect": 5591,
      "needy__": 5592,
      "_alk__": 5593,
      "_prise__": 5594,
      "invol": 5595,
      "invented__": 5596,
      "invitation__": 5597,
      "sweetheart__": 5598,
      "attack__": 5599,
      "attic__": 5600,
      "_rrr": 5601,
      "_ighth__": 5602,
      "specially__": 5603,
      "specials__": 5604,
      "perform": 5605,
      "promised__": 5606,
      "dism": 5607,
      "disease__": 5608,
      "disag": 5609,
      "disapp": 5610,
      "dishes__": 5611,
      "dispos": 5612,
      "wig__": 5613,
      "wild": 5614,
      "_rows__": 5615,
      "chippy__": 5616,
      "charge__": 5617,
      "charity__": 5618,
      "charco": 5619,
      "accent__": 5620,
      "_osit__": 5621,
      "_osite__": 5622,
      "_oscope__": 5623,
      "design": 5624,
      "descri": 5625,
      "honing__": 5626,
      "south__": 5627,
      "_berry__": 5628,
      "_icious__": 5629,
      "contrac": 5630,
      "contestants__": 5631,
      "importantly__": 5632,
      "Including__": 5633,
      "Instead__": 5634,
      "Interesting__": 5635,
      "horse__": 5636,
      "horoscope__": 5637,
      "joy__": 5638,
      "jogging__": 5639,
      "luck": 5640,
      "sensed__": 5641,
      "terms__": 5642,
      "_ewer__": 5643,
      "_ologists__": 5644,
      "unbelievably__": 5645,
      "Unless__": 5646,
      "Unfortunately__": 5647,
      "Underdog__": 5648,
      "goose__": 5649,
      "goods__": 5650,
      "laugh__": 5651,
      "moms__": 5652,
      "member__": 5653,
      "memory__": 5654,
      "objec": 5655,
      "_agna__": 5656,
      "strips__": 5657,
      "Armadillo__": 5658,
      "awfully__": 5659,
      "awkward__": 5660,
      "blast__": 5661,
      "blades__": 5662,
      "hug__": 5663,
      "legit": 5664,
      "_aph": 5665,
      "answers__": 5666,
      "roommates__": 5667,
      "Everyone__": 5668,
      "Dammit__": 5669,
      "boots__": 5670,
      "boobs__": 5671,
      "boobies__": 5672,
      "drops__": 5673,
      "dropping__": 5674,
      "drag__": 5675,
      "draw__": 5676,
      "drama__": 5677,
      "depends__": 5678,
      "depressed__": 5679,
      "deposit__": 5680,
      "earlier__": 5681,
      "owes__": 5682,
      "trifle__": 5683,
      "sweaty__": 5684,
      "July__": 5685,
      "audit": 5686,
      "audience__": 5687,
      "bouillabais": 5688,
      "catching__": 5689,
      "catering__": 5690,
      "vibe__": 5691,
      "tasted__": 5692,
      "tastes__": 5693,
      "increa": 5694,
      "president__": 5695,
      "restaurants__": 5696,
      "Score__": 5697,
      "Scorc": 5698,
      "burn__": 5699,
      "burned__": 5700,
      "burrit": 5701,
      "embry": 5702,
      "learning__": 5703,
      "mouthing__": 5704,
      "moustach": 5705,
      "midter": 5706,
      "midnight__": 5707,
      "mistakes__": 5708,
      "purpose__": 5709,
      "_imate__": 5710,
      "_inced__": 5711,
      "straight": 5712,
      "subtle__": 5713,
      "lovers__": 5714,
      "loveable__": 5715,
      "boxer__": 5716,
      "Coffee__": 5717,
      "Cobb__": 5718,
      "Collins__": 5719,
      "Without__": 5720,
      "cereal__": 5721,
      "certain__": 5722,
      "hopefully__": 5723,
      "hopeless__": 5724,
      "killer__": 5725,
      "_ucc": 5726,
      "_uctive__": 5727,
      "_ign__": 5728,
      "counter__": 5729,
      "enjoyed__": 5730,
      "apologise__": 5731,
      "Paleontology__": 5732,
      "snu": 5733,
      "_ginity__": 5734,
      "_onnect__": 5735,
      "_atta__": 5736,
      "_attery__": 5737,
      "infl": 5738,
      "butter__": 5739,
      "memorial__": 5740,
      "memorize__": 5741,
      "Knock__": 5742,
      "Maria__": 5743,
      "Somebody__": 5744,
      "outdoo": 5745,
      "rece": 5746,
      "recent__": 5747,
      "recently__": 5748,
      "sky__": 5749,
      "skip__": 5750,
      "_ifer__": 5751,
      "_ific": 5752,
      "_oooooooo": 5753,
      "waiters__": 5754,
      "waitress__": 5755,
      "behaved__": 5756,
      "checked__": 5757,
      "confident__": 5758,
      "teaches__": 5759,
      "controls__": 5760,
      "embarrass__": 5761,
      "embarrassing__": 5762,
      "Contraction__": 5763,
      "Helen__": 5764,
      "Krista__": 5765,
      "Pres": 5766,
      "avoid__": 5767,
      "backstage__": 5768,
      "kicked__": 5769,
      "nurses__": 5770,
      "peel__": 5771,
      "repl": 5772,
      "report__": 5773,
      "revenge__": 5774,
      "seah": 5775,
      "seats__": 5776,
      "_itches__": 5777,
      "interview": 5778,
      "incredibly__": 5779,
      "Broadway__": 5780,
      "Such__": 5781,
      "Time__": 5782,
      "Times__": 5783,
      "actress__": 5784,
      "barium__": 5785,
      "cancel__": 5786,
      "cancelled__": 5787,
      "cancellation__": 5788,
      "herself__": 5789,
      "jerks__": 5790,
      "lined__": 5791,
      "linen__": 5792,
      "nipples__": 5793,
      "opposite__": 5794,
      "_aaaa__": 5795,
      "_perty__": 5796,
      "_endent__": 5797,
      "uncoo": 5798,
      "practicing__": 5799,
      "impressive__": 5800,
      "impressions__": 5801,
      "soak__": 5802,
      "countdown__": 5803,
      "!!!!!!__": 5804,
      "Awesome__": 5805,
      "Cuba__": 5806,
      "Eng": 5807,
      "Enough__": 5808,
      "Goodbye__": 5809,
      "Oooh__": 5810,
      "Ooohh__": 5811,
      "Ooooh__": 5812,
      "Saint__": 5813,
      "agent__": 5814,
      "grown__": 5815,
      "heh__": 5816,
      "occas": 5817,
      "yelled__": 5818,
      "younger__": 5819,
      "_iiii": 5820,
      "label__": 5821,
      "pretend__": 5822,
      "switched__": 5823,
      "Stevie__": 5824,
      "Magic__": 5825,
      "criticis": 5826,
      "dinosaurs__": 5827,
      "India__": 5828,
      "Indian__": 5829,
      "blazers__": 5830,
      "Betty__": 5831,
      "Bernice__": 5832,
      "Doug__": 5833,
      "Double__": 5834,
      "Howdy__": 5835,
      "Neil__": 5836,
      "Next__": 5837,
      "Sunday__": 5838,
      "Sunshine__": 5839,
      "bearnaise__": 5840,
      "corn": 5841,
      "deli__": 5842,
      "delicious__": 5843,
      "dammit__": 5844,
      "damnit__": 5845,
      "feast__": 5846,
      "fanny__": 5847,
      "football__": 5848,
      "issues__": 5849,
      "kissing__": 5850,
      "kisser__": 5851,
      "nights__": 5852,
      "ours__": 5853,
      "popcorn__": 5854,
      "_rup": 5855,
      "_idek": 5856,
      "speacial__": 5857,
      "common__": 5858,
      "bumps__": 5859,
      "bumped__": 5860,
      "postpone__": 5861,
      "medical__": 5862,
      "tomatoes__": 5863,
      "competition__": 5864,
      "competitive__": 5865,
      "smoking__": 5866,
      "signed__": 5867,
      "regatta__": 5868,
      "laughing__": 5869,
      "laughed__": 5870,
      "private__": 5871,
      "suggestion__": 5872,
      "suggestions__": 5873,
      "Clown__": 5874,
      "Florida__": 5875,
      "Hurely__": 5876,
      "Manly__": 5877,
      "airport__": 5878,
      "alive__": 5879,
      "alien__": 5880,
      "cursed__": 5881,
      "egg__": 5882,
      "eggs__": 5883,
      "factory__": 5884,
      "fulfilling__": 5885,
      "hygi": 5886,
      "hydro": 5887,
      "jacket__": 5888,
      "jackass__": 5889,
      "mirror__": 5890,
      "miracle__": 5891,
      "ninet": 5892,
      "pushing__": 5893,
      "pushover__": 5894,
      "remove__": 5895,
      "refuse__": 5896,
      "_nnnn__": 5897,
      "_obia__": 5898,
      "shave__": 5899,
      "guilt__": 5900,
      "guilty__": 5901,
      "success__": 5902,
      "balloon__": 5903,
      "ballroom__": 5904,
      "Charlie__": 5905,
      "lasagne__": 5906,
      "lasagna__": 5907,
      "_umpkin__": 5908,
      "transfer": 5909,
      "fiancee__": 5910,
      "fiancée__": 5911,
      "convinced__": 5912,
      "scientist__": 5913,
      "scientists__": 5914,
      "scooch__": 5915,
      "cleaner__": 5916,
      "opera__": 5917,
      "classes__": 5918,
      "stranger__": 5919,
      "strangers__": 5920,
      "officially__": 5921,
      "official__": 5922,
      "observe__": 5923,
      "Scottish__": 5924,
      "Problem__": 5925,
      "Probably__": 5926,
      "Sweety__": 5927,
      "customer__": 5928,
      "customers__": 5929,
      "chocolate__": 5930,
      "chocolates__": 5931,
      "198": 5932,
      "717__": 5933,
      "Apoll": 5934,
      "Comin__": 5935,
      "Empire__": 5936,
      "Fortunately__": 5937,
      "Heh__": 5938,
      "Loved__": 5939,
      "Morgan__": 5940,
      "Miller__": 5941,
      "Mississ__": 5942,
      "Russia__": 5943,
      "Sarah__": 5944,
      "Tuesday__": 5945,
      "Valentine__": 5946,
      "World__": 5947,
      "allergies__": 5948,
      "bicep__": 5949,
      "client__": 5950,
      "cartoon__": 5951,
      "cushion__": 5952,
      "daily__": 5953,
      "facility__": 5954,
      "female__": 5955,
      "focus__": 5956,
      "gorilla__": 5957,
      "green__": 5958,
      "juice__": 5959,
      "jingle__": 5960,
      "level__": 5961,
      "nicest__": 5962,
      "oooh__": 5963,
      "panicked__": 5964,
      "songs__": 5965,
      "satin__": 5966,
      "tempor": 5967,
      "testify__": 5968,
      "vacation__": 5969,
      "virginity__": 5970,
      "video__": 5971,
      "wrapped__": 5972,
      "_eenth__": 5973,
      "_ograph": 5974,
      "_NDWICH__": 5975,
      "stopped__": 5976,
      "Thurman__": 5977,
      "react__": 5978,
      "pleasant__": 5979,
      "platf": 5980,
      "Johnson__": 5981,
      "Joseph__": 5982,
      "chair__": 5983,
      "balance__": 5984,
      "indeedy__": 5985,
      "muffins__": 5986,
      "stuffing__": 5987,
      "thousand__": 5988,
      "swimming__": 5989,
      "trusted__": 5990,
      "painful__": 5991,
      "fireman__": 5992,
      "conquered__": 5993,
      "convention__": 5994,
      "photos__": 5995,
      "physical__": 5996,
      "brownie__": 5997,
      "blackout__": 5998,
      "complement__": 5999,
      "cruel__": 6000,
      "sixth__": 6001,
      "expression__": 6002,
      "reservations__": 6003,
      "application__": 6004,
      "graduated__": 6005,
      "puzzle__": 6006,
      "Francis__": 6007,
      "designer__": 6008,
      "Internet__": 6009,
      "ordinary__": 6010,
      "anniversary__": 6011,
      "violated__": 6012,
      "Scott__": 6013,
      "assumed__": 6014,
      "American__": 6015,
      "doubt__": 6016,
      "groceries__": 6017,
      "masculine__": 6018,
      "potatoes__": 6019,
      "cigarette__": 6020,
      "damage__": 6021,
      "psyched__": 6022,
      "Stephanopoulo": 6023,
      "Action__": 6024,
      "Atlantic__": 6025,
      "After__": 6026,
      "ATM__": 6027,
      "Aaron__": 6028,
      "Avenue__": 6029,
      "Abott__": 6030,
      "Batman__": 6031,
      "Breathe__": 6032,
      "Baby__": 6033,
      "Backup__": 6034,
      "Cinderelly__": 6035,
      "Canad": 6036,
      "Correct__": 6037,
      "Celtics__": 6038,
      "Elaine__": 6039,
      "Freem": 6040,
      "Fighting__": 6041,
      "Glen__": 6042,
      "GOD__": 6043,
      "Horny__": 6044,
      "Hurry__": 6045,
      "Huntley__": 6046,
      "Illinois__": 6047,
      "Jordie__": 6048,
      "Jennifer__": 6049,
      "Katie__": 6050,
      "Krog__": 6051,
      "Latour__": 6052,
      "Lemme__": 6053,
      "Ladies__": 6054,
      "Momma__": 6055,
      "Martin__": 6056,
      "Nelson__": 6057,
      "Obviously__": 6058,
      "Patrick__": 6059,
      "Petrie__": 6060,
      "Rhonda__": 6061,
      "Ramoray__": 6062,
      "Ronni__": 6063,
      "SANDWICH__": 6064,
      "Surprise__": 6065,
      "Simmons__": 6066,
      "Sophie__": 6067,
      "Ukrainian__": 6068,
      "Ultimate__": 6069,
      "Welch__": 6070,
      "Wesley__": 6071,
      "Western__": 6072,
      "Yikes__": 6073,
      "aisle__": 6074,
      "create__": 6075,
      "clever__": 6076,
      "dessert__": 6077,
      "dunno__": 6078,
      "emotion": 6079,
      "eligible__": 6080,
      "geograph": 6081,
      "hernia__": 6082,
      "island__": 6083,
      "ignore__": 6084,
      "kinds__": 6085,
      "large__": 6086,
      "landlord__": 6087,
      "lounge__": 6088,
      "mix__": 6089,
      "mountain__": 6090,
      "nanny__": 6091,
      "northern__": 6092,
      "nutmeg__": 6093,
      "nowhere__": 6094,
      "nuclear__": 6095,
      "origin": 6096,
      "overseas__": 6097,
      "often__": 6098,
      "peac": 6099,
      "radio__": 6100,
      "routine__": 6101,
      "situation__": 6102,
      "sophisticated__": 6103,
      "teeth__": 6104,
      "treasures__": 6105,
      "urgent__": 6106,
      "wuss__": 6107,
      "woowoo__": 6108,
      "_rooms__": 6109,
      "_uthor": 6110,
      "_mitted__": 6111,
      "_mental__": 6112,
      "_zines__": 6113,
      "hamper__": 6114,
      "hamburger__": 6115,
      "knuckle__": 6116,
      "beeped__": 6117,
      "beginning__": 6118,
      "liquor__": 6119,
      "stolen__": 6120,
      "sheets__": 6121,
      "shadow__": 6122,
      "_stances__": 6123,
      "doctors__": 6124,
      "seventh__": 6125,
      "gumball__": 6126,
      "magazines__": 6127,
      "mailman__": 6128,
      "pledges__": 6129,
      "saliva__": 6130,
      "cheshhh__": 6131,
      "Champion__": 6132,
      "Chatracus__": 6133,
      "unusual__": 6134,
      "uniform__": 6135,
      "unacceptable__": 6136,
      "spleen__": 6137,
      "spooky__": 6138,
      "spirit__": 6139,
      "professional__": 6140,
      "integrity__": 6141,
      "oughta__": 6142,
      "Stryker__": 6143,
      "direction__": 6144,
      "_ilantro__": 6145,
      "Annabelle__": 6146,
      "complicated__": 6147,
      "maternity__": 6148,
      "flattered__": 6149,
      "difficult__": 6150,
      "rejoin__": 6151,
      "cubicle__": 6152,
      "maniac__": 6153,
      "_randfather__": 6154,
      "inspector__": 6155,
      "performance__": 6156,
      "disagree__": 6157,
      "disposable__": 6158,
      "charcoal__": 6159,
      "designers__": 6160,
      "legitimate__": 6161,
      "bouillabaisse__": 6162,
      "Scorcese__": 6163,
      "embryos__": 6164,
      "moustache__": 6165,
      "criticism__": 6166,
      "hydros": 6167,
      "Apollo__": 6168,
      "Stephanopoulos__": 6169,
      "emotional__": 6170,
      "!!": 6171,
      "!”__": 6172,
      "!—__": 6173,
      "!\"": 6174,
      "!...__": 6175,
      "\",__": 6176,
      "\"!__": 6177,
      "\"…__": 6178,
      "\"?__": 6179,
      "\"...__": 6180,
      "%?__": 6181,
      "'!__": 6182,
      "':__": 6183,
      ",”__": 6184,
      ",'__": 6185,
      ",..__": 6186,
      "-,__": 6187,
      "-'": 6188,
      "-...__": 6189,
      ".”__": 6190,
      ".’__": 6191,
      ".-__": 6192,
      ".!!": 6193,
      "15": 6194,
      "12": 6195,
      "11__": 6196,
      "12__": 6197,
      "1A__": 6198,
      "100__": 6199,
      "29__": 6200,
      "20": 6201,
      "26__": 6202,
      "21": 6203,
      "24__": 6204,
      "23": 6205,
      "27": 6206,
      "35": 6207,
      "32": 6208,
      "37": 6209,
      "300__": 6210,
      "47__": 6211,
      "49__": 6212,
      "46__": 6213,
      "437__": 6214,
      "55": 6215,
      "56__": 6216,
      "60__": 6217,
      "75__": 6218,
      "79__": 6219,
      "87__": 6220,
      "90__": 6221,
      "98__": 6222,
      "94__": 6223,
      "92__": 6224,
      "93": 6225,
      "?”__": 6226,
      "?'__": 6227,
      "??": 6228,
      "?..__": 6229,
      "?!!!__": 6230,
      "Aa": 6231,
      "Am": 6232,
      "Aid__": 6233,
      "Age__": 6234,
      "Able__": 6235,
      "Actor__": 6236,
      "Aqu": 6237,
      "Amazing__": 6238,
      "Ahhh__": 6239,
      "Aaa": 6240,
      "Ask__": 6241,
      "Acting__": 6242,
      "Author": 6243,
      "Be": 6244,
      "Br": 6245,
      "Ba__": 6246,
      "Bw": 6247,
      "By": 6248,
      "BI": 6249,
      "Boo": 6250,
      "Bic": 6251,
      "Bri": 6252,
      "Bir": 6253,
      "Book__": 6254,
      "Bur": 6255,
      "Bear": 6256,
      "Bum": 6257,
      "Bow": 6258,
      "Bad__": 6259,
      "Bact": 6260,
      "Brow": 6261,
      "Bag": 6262,
      "Bail__": 6263,
      "Beth__": 6264,
      "Benef": 6265,
      "Burt__": 6266,
      "Boring__": 6267,
      "Beta__": 6268,
      "CO": 6269,
      "CU": 6270,
      "CI": 6271,
      "Cir": 6272,
      "Cle": 6273,
      "Cam": 6274,
      "Col": 6275,
      "Canc": 6276,
      "Cous": 6277,
      "Cuti": 6278,
      "Cook": 6279,
      "Cos__": 6280,
      "Cross__": 6281,
      "Crew__": 6282,
      "Cup__": 6283,
      "Count__": 6284,
      "Celebr": 6285,
      "Cia": 6286,
      "Connect__": 6287,
      "Cilantro__": 6288,
      "Da": 6289,
      "Du": 6290,
      "DR": 6291,
      "DN": 6292,
      "DU": 6293,
      "DI": 6294,
      "DA": 6295,
      "Din": 6296,
      "Dan__": 6297,
      "Den": 6298,
      "Dro": 6299,
      "Dec": 6300,
      "Dice__": 6301,
      "Dut": 6302,
      "Date__": 6303,
      "Dick__": 6304,
      "Dest": 6305,
      "Dow": 6306,
      "Deep__": 6307,
      "Dep": 6308,
      "Dark__": 6309,
      "Dead__": 6310,
      "During__": 6311,
      "Drum__": 6312,
      "Death__": 6313,
      "Delv": 6314,
      "El": 6315,
      "Eu": 6316,
      "Eg": 6317,
      "Ew": 6318,
      "Ez": 6319,
      "Ec__": 6320,
      "ER__": 6321,
      "Eight__": 6322,
      "Ear": 6323,
      "Eth": 6324,
      "Eri": 6325,
      "Ever__": 6326,
      "Eff": 6327,
      "Emm": 6328,
      "Emb": 6329,
      "East__": 6330,
      "Edd": 6331,
      "Eyed__": 6332,
      "Eww": 6333,
      "Ewing__": 6334,
      "Eric__": 6335,
      "Easy__": 6336,
      "Eighth__": 6337,
      "Fe": 6338,
      "Fan": 6339,
      "Fon": 6340,
      "Foo": 6341,
      "Fel": 6342,
      "Food__": 6343,
      "Fem": 6344,
      "Fun": 6345,
      "Fis": 6346,
      "Find__": 6347,
      "Face__": 6348,
      "Fett": 6349,
      "Four": 6350,
      "Free__": 6351,
      "Fol": 6352,
      "Foc": 6353,
      "Fire__": 6354,
      "Future__": 6355,
      "Fraid__": 6356,
      "Filing__": 6357,
      "Ga": 6358,
      "GR__": 6359,
      "GI": 6360,
      "Gon": 6361,
      "Gay__": 6362,
      "Ger": 6363,
      "Gra": 6364,
      "Gem": 6365,
      "Gur": 6366,
      "Gone__": 6367,
      "Gep": 6368,
      "Gar__": 6369,
      "Gib": 6370,
      "Gimm": 6371,
      "Gettin__": 6372,
      "Grandfather__": 6373,
      "Hh": 6374,
      "His__": 6375,
      "Home__": 6376,
      "Hau": 6377,
      "Hel__": 6378,
      "Hell": 6379,
      "Hate__": 6380,
      "Hum": 6381,
      "Hul": 6382,
      "Hand__": 6383,
      "House__": 6384,
      "Hew": 6385,
      "Hating__": 6386,
      "Hot": 6387,
      "Horm": 6388,
      "Hyp": 6389,
      "Hey": 6390,
      "Heal": 6391,
      "Hang__": 6392,
      "Handling__": 6393,
      "High__": 6394,
      "HEY__": 6395,
      "Hero__": 6396,
      "It": 6397,
      "ID__": 6398,
      "IN__": 6399,
      "Its__": 6400,
      "Ice__": 6401,
      "Ima": 6402,
      "Imp": 6403,
      "Ju__": 6404,
      "JO": 6405,
      "J4": 6406,
      "Jar": 6407,
      "Jest": 6408,
      "Jud": 6409,
      "Jam__": 6410,
      "Jav": 6411,
      "Jail__": 6412,
      "Junior__": 6413,
      "Jeff": 6414,
      "Jenny__": 6415,
      "KL__": 6416,
      "Kar": 6417,
      "Kick__": 6418,
      "Kle": 6419,
      "Keep__": 6420,
      "Kil": 6421,
      "Kiss__": 6422,
      "Koon__": 6423,
      "Kings__": 6424,
      "Kiss": 6425,
      "King": 6426,
      "Key": 6427,
      "Kelly__": 6428,
      "Kitten__": 6429,
      "Kost": 6430,
      "Kurt__": 6431,
      "Kicky__": 6432,
      "Le": 6433,
      "La": 6434,
      "La__": 6435,
      "LO": 6436,
      "Lit": 6437,
      "Lot__": 6438,
      "Lis": 6439,
      "Lear": 6440,
      "Lose__": 6441,
      "Lee__": 6442,
      "Las": 6443,
      "Linda__": 6444,
      "Lam": 6445,
      "Loc": 6446,
      "Lint__": 6447,
      "Lean__": 6448,
      "Las__": 6449,
      "Lord__": 6450,
      "Leb": 6451,
      "Lenny__": 6452,
      "Mo": 6453,
      "MR": 6454,
      "ME__": 6455,
      "MU": 6456,
      "ME": 6457,
      "Men__": 6458,
      "Met__": 6459,
      "Mir": 6460,
      "Mem": 6461,
      "Mmm__": 6462,
      "Mur": 6463,
      "Mally__": 6464,
      "Mis": 6465,
      "Mist": 6466,
      "Mas": 6467,
      "Miss__": 6468,
      "Mister__": 6469,
      "Mos": 6470,
      "Maur": 6471,
      "Med": 6472,
      "Mich": 6473,
      "Matt": 6474,
      "Mount__": 6475,
      "Mww": 6476,
      "Merry__": 6477,
      "Mex": 6478,
      "Meg__": 6479,
      "Na__": 6480,
      "Ni__": 6481,
      "NY": 6482,
      "Nor": 6483,
      "Nor__": 6484,
      "Nes": 6485,
      "Nuh__": 6486,
      "Nud": 6487,
      "New": 6488,
      "Nude__": 6489,
      "Nim": 6490,
      "Noooo": 6491,
      "Nancy__": 6492,
      "Nuts__": 6493,
      "Nana__": 6494,
      "Numb__": 6495,
      "Nng": 6496,
      "NOO": 6497,
      "Oo": 6498,
      "Og__": 6499,
      "Ok": 6500,
      "ON__": 6501,
      "Oon__": 6502,
      "Other__": 6503,
      "Oli": 6504,
      "Oop__": 6505,
      "Ooo__": 6506,
      "Orr": 6507,
      "Ohh": 6508,
      "Org": 6509,
      "Ohhhh": 6510,
      "Ohhhh__": 6511,
      "Olé__": 6512,
      "Pr": 6513,
      "Pa__": 6514,
      "Ph__": 6515,
      "Pi__": 6516,
      "PB": 6517,
      "PU": 6518,
      "Pat__": 6519,
      "Pay__": 6520,
      "Pri": 6521,
      "Pack__": 6522,
      "Part": 6523,
      "Pie__": 6524,
      "Pett": 6525,
      "Poor__": 6526,
      "Punch__": 6527,
      "Patch__": 6528,
      "Pfi": 6529,
      "Peel__": 6530,
      "Power__": 6531,
      "Paper__": 6532,
      "Post": 6533,
      "Pages__": 6534,
      "Pumpkin__": 6535,
      "Rd": 6536,
      "RE__": 6537,
      "RE": 6538,
      "RS": 6539,
      "Ring__": 6540,
      "Ren": 6541,
      "Rome__": 6542,
      "Rick__": 6543,
      "Rest": 6544,
      "Room__": 6545,
      "Ref": 6546,
      "Rep": 6547,
      "Rue__": 6548,
      "Ret": 6549,
      "Rad": 6550,
      "Rush__": 6551,
      "Rig": 6552,
      "Rules__": 6553,
      "Ruth__": 6554,
      "Remember": 6555,
      "Rider__": 6556,
      "Ritter__": 6557,
      "Se": 6558,
      "Sn": 6559,
      "So": 6560,
      "Sk": 6561,
      "Sy": 6562,
      "Son": 6563,
      "Set__": 6564,
      "Sen": 6565,
      "See": 6566,
      "Sau": 6567,
      "Sla": 6568,
      "Sul": 6569,
      "Sil": 6570,
      "Setting__": 6571,
      "Sud": 6572,
      "Sag": 6573,
      "Same__": 6574,
      "Small__": 6575,
      "Sim": 6576,
      "Sinc": 6577,
      "Sells__": 6578,
      "Sisters__": 6579,
      "Ta__": 6580,
      "Th__": 6581,
      "Ty": 6582,
      "Tan": 6583,
      "Ted__": 6584,
      "Ter": 6585,
      "Tor": 6586,
      "Tre": 6587,
      "Tra": 6588,
      "Top__": 6589,
      "Tick": 6590,
      "Tol": 6591,
      "Taur": 6592,
      "Tib": 6593,
      "Tot": 6594,
      "Techn": 6595,
      "Tenn": 6596,
      "Turn__": 6597,
      "Testing__": 6598,
      "Tequ": 6599,
      "Telethon__": 6600,
      "Tests__": 6601,
      "Talk__": 6602,
      "Trrr": 6603,
      "Up__": 6604,
      "Uff__": 6605,
      "Uhhhh__": 6606,
      "Ummm__": 6607,
      "Ummmm": 6608,
      "VC": 6609,
      "Vou": 6610,
      "Ver": 6611,
      "Vel": 6612,
      "Vir": 6613,
      "Val__": 6614,
      "Vill": 6615,
      "Vinc": 6616,
      "Vase__": 6617,
      "Vail__": 6618,
      "We": 6619,
      "Wr": 6620,
      "Wo__": 6621,
      "WX": 6622,
      "WE__": 6623,
      "WE": 6624,
      "Win": 6625,
      "Won__": 6626,
      "Wre": 6627,
      "Went__": 6628,
      "Wind": 6629,
      "West__": 6630,
      "Wouldn__": 6631,
      "Wooo__": 6632,
      "Weren__": 6633,
      "Warm__": 6634,
      "Wyn": 6635,
      "WON__": 6636,
      "Wool": 6637,
      "Ye__": 6638,
      "Yo__": 6639,
      "YO": 6640,
      "YE": 6641,
      "Year__": 6642,
      "Yow": 6643,
      "Yent": 6644,
      "Youn": 6645,
      "Yoo__": 6646,
      "Yellow__": 6647,
      "Yug": 6648,
      "Zana__": 6649,
      "Zinf": 6650,
      "at": 6651,
      "al__": 6652,
      "aa__": 6653,
      "aer": 6654,
      "ast": 6655,
      "aid__": 6656,
      "ace__": 6657,
      "age": 6658,
      "aww__": 6659,
      "ahhh__": 6660,
      "azz": 6661,
      "allow__": 6662,
      "aim__": 6663,
      "astr": 6664,
      "author": 6665,
      "ba__": 6666,
      "bust__": 6667,
      "bone__": 6668,
      "bore__": 6669,
      "bird__": 6670,
      "bound__": 6671,
      "bach": 6672,
      "book": 6673,
      "bones__": 6674,
      "bench__": 6675,
      "bats__": 6676,
      "bitten__": 6677,
      "breeze__": 6678,
      "binge__": 6679,
      "buns__": 6680,
      "battery__": 6681,
      "bitches__": 6682,
      "cc": 6683,
      "ce__": 6684,
      "ci": 6685,
      "cy": 6686,
      "cin": 6687,
      "cell__": 6688,
      "cri": 6689,
      "cel": 6690,
      "come": 6691,
      "cut": 6692,
      "central__": 6693,
      "cider__": 6694,
      "cilantro__": 6695,
      "da__": 6696,
      "dw": 6697,
      "du__": 6698,
      "dan": 6699,
      "dot__": 6700,
      "dem": 6701,
      "duh__": 6702,
      "dried__": 6703,
      "det": 6704,
      "ditch__": 6705,
      "drow": 6706,
      "dirt__": 6707,
      "dense__": 6708,
      "deb": 6709,
      "dentists__": 6710,
      "dorms__": 6711,
      "ee": 6712,
      "er": 6713,
      "ee__": 6714,
      "ew__": 6715,
      "ere": 6716,
      "era": 6717,
      "eel__": 6718,
      "ear__": 6719,
      "err": 6720,
      "esp": 6721,
      "etern": 6722,
      "ease__": 6723,
      "eater__": 6724,
      "eight": 6725,
      "estate__": 6726,
      "ette__": 6727,
      "eighth__": 6728,
      "fed__": 6729,
      "fic": 6730,
      "far": 6731,
      "fro": 6732,
      "fell": 6733,
      "fis": 6734,
      "fears__": 6735,
      "frow": 6736,
      "fitting__": 6737,
      "ferry__": 6738,
      "fict": 6739,
      "flies__": 6740,
      "fewer__": 6741,
      "gou": 6742,
      "gan": 6743,
      "gel__": 6744,
      "gate__": 6745,
      "gle": 6746,
      "ground__": 6747,
      "grac": 6748,
      "gross__": 6749,
      "glu": 6750,
      "gettin__": 6751,
      "grows__": 6752,
      "grandfather__": 6753,
      "hop__": 6754,
      "hick": 6755,
      "hide__": 6756,
      "hum__": 6757,
      "heck__": 6758,
      "hitch": 6759,
      "heels__": 6760,
      "houses__": 6761,
      "ill__": 6762,
      "ill": 6763,
      "ish__": 6764,
      "ju__": 6765,
      "jour": 6766,
      "jet": 6767,
      "jus__": 6768,
      "junk__": 6769,
      "kett": 6770,
      "key": 6771,
      "ly": 6772,
      "low__": 6773,
      "lan": 6774,
      "lay__": 6775,
      "lac": 6776,
      "lur": 6777,
      "lun": 6778,
      "les": 6779,
      "lace__": 6780,
      "lure__": 6781,
      "lick": 6782,
      "lous": 6783,
      "less": 6784,
      "ling": 6785,
      "lane__": 6786,
      "lyin__": 6787,
      "length__": 6788,
      "mic": 6789,
      "mec": 6790,
      "ment__": 6791,
      "mur": 6792,
      "mun": 6793,
      "mate__": 6794,
      "mil": 6795,
      "mute__": 6796,
      "ment": 6797,
      "mort": 6798,
      "menti": 6799,
      "mellow__": 6800,
      "nom": 6801,
      "non__": 6802,
      "nau": 6803,
      "nouse__": 6804,
      "nude__": 6805,
      "nooo__": 6806,
      "nons": 6807,
      "national__": 6808,
      "nomin": 6809,
      "nerves__": 6810,
      "nnnnn__": 6811,
      "ot__": 6812,
      "ore": 6813,
      "oct": 6814,
      "ohh__": 6815,
      "old": 6816,
      "oven__": 6817,
      "oral__": 6818,
      "others__": 6819,
      "oak__": 6820,
      "orally__": 6821,
      "ooooooooo": 6822,
      "ping__": 6823,
      "per__": 6824,
      "poo": 6825,
      "pot__": 6826,
      "pan__": 6827,
      "por": 6828,
      "pry__": 6829,
      "pir": 6830,
      "pit__": 6831,
      "pes": 6832,
      "pear__": 6833,
      "prom__": 6834,
      "pose__": 6835,
      "pour": 6836,
      "pul": 6837,
      "pill": 6838,
      "panc": 6839,
      "pound__": 6840,
      "packing__": 6841,
      "peas__": 6842,
      "patch__": 6843,
      "pony__": 6844,
      "pelv": 6845,
      "pumpkin__": 6846,
      "ri": 6847,
      "rit": 6848,
      "rac": 6849,
      "rack__": 6850,
      "rally__": 6851,
      "rum": 6852,
      "rose__": 6853,
      "rab": 6854,
      "rage__": 6855,
      "role__": 6856,
      "rum__": 6857,
      "rope__": 6858,
      "rush__": 6859,
      "ratt": 6860,
      "ring": 6861,
      "ramb": 6862,
      "rang__": 6863,
      "racec": 6864,
      "right": 6865,
      "runn": 6866,
      "rights__": 6867,
      "ripped__": 6868,
      "se__": 6869,
      "san": 6870,
      "sight__": 6871,
      "sac": 6872,
      "sour__": 6873,
      "sid": 6874,
      "sore__": 6875,
      "sil": 6876,
      "sends__": 6877,
      "soun": 6878,
      "sooo__": 6879,
      "syp": 6880,
      "sorts__": 6881,
      "sits__": 6882,
      "series__": 6883,
      "serves__": 6884,
      "sides__": 6885,
      "sidek": 6886,
      "tow__": 6887,
      "tan": 6888,
      "tor": 6889,
      "tre": 6890,
      "tone__": 6891,
      "tort": 6892,
      "torn__": 6893,
      "tuc": 6894,
      "tarra": 6895,
      "tooth__": 6896,
      "tens": 6897,
      "testing__": 6898,
      "tinted__": 6899,
      "teen": 6900,
      "tingly__": 6901,
      "tune__": 6902,
      "tummy__": 6903,
      "ur": 6904,
      "ugh__": 6905,
      "ude__": 6906,
      "uses__": 6907,
      "ultim": 6908,
      "ve": 6909,
      "vom": 6910,
      "van__": 6911,
      "ver": 6912,
      "vice__": 6913,
      "vous__": 6914,
      "vol": 6915,
      "val": 6916,
      "vess": 6917,
      "via__": 6918,
      "vag": 6919,
      "vend": 6920,
      "wea": 6921,
      "wing__": 6922,
      "wry__": 6923,
      "wid": 6924,
      "wore__": 6925,
      "wow": 6926,
      "wide__": 6927,
      "wise__": 6928,
      "wound__": 6929,
      "wink__": 6930,
      "wins__": 6931,
      "wired__": 6932,
      "wrec": 6933,
      "willing__": 6934,
      "wires__": 6935,
      "ye__": 6936,
      "yo": 6937,
      "yo__": 6938,
      "yar": 6939,
      "yore__": 6940,
      "yest": 6941,
      "yard__": 6942,
      "yol": 6943,
      "yum__": 6944,
      "yearly__": 6945,
      "yummy__": 6946,
      "zy": 6947,
      "zone__": 6948,
      "zine__": 6949,
      "zill": 6950,
      "zip__": 6951,
      "zero__": 6952,
      "—,__": 6953,
      "’?": 6954,
      "_ek__": 6955,
      "_em__": 6956,
      "_ex__": 6957,
      "_eve__": 6958,
      "_eell__": 6959,
      "_eight__": 6960,
      "_ele__": 6961,
      "_eut": 6962,
      "_eers__": 6963,
      "_essed__": 6964,
      "_eering__": 6965,
      "_eens__": 6966,
      "_eio__": 6967,
      "_ehead__": 6968,
      "_eboard__": 6969,
      "_eberry__": 6970,
      "_cc": 6971,
      "_ca": 6972,
      "_cu": 6973,
      "_cut__": 6974,
      "_ces__": 6975,
      "_cti": 6976,
      "_cate__": 6977,
      "_cked__": 6978,
      "_coa__": 6979,
      "_cour": 6980,
      "_cue__": 6981,
      "_cil__": 6982,
      "_cile__": 6983,
      "_came__": 6984,
      "_case__": 6985,
      "_cra__": 6986,
      "_cript__": 6987,
      "_cony__": 6988,
      "_comfortable__": 6989,
      "_ctions__": 6990,
      "_cass__": 6991,
      "_cano__": 6992,
      "_coma__": 6993,
      "_connect__": 6994,
      "_lm": 6995,
      "_lf": 6996,
      "_ly": 6997,
      "_lo__": 6998,
      "_lin": 6999,
      "_lan": 7000,
      "_line__": 7001,
      "_lter__": 7002,
      "_lity__": 7003,
      "_lation__": 7004,
      "_louse__": 7005,
      "_lated__": 7006,
      "_lging__": 7007,
      "_lant": 7008,
      "_lane__": 7009,
      "_leeeen__": 7010,
      "_licky__": 7011,
      "_ag__": 7012,
      "_ai__": 7013,
      "_az__": 7014,
      "_all": 7015,
      "_agh": 7016,
      "_ald__": 7017,
      "_ast": 7018,
      "_ait__": 7019,
      "_ail": 7020,
      "_aad": 7021,
      "_azz": 7022,
      "_aiss": 7023,
      "_aken__": 7024,
      "_allow__": 7025,
      "_alls__": 7026,
      "_assy__": 7027,
      "_ainted__": 7028,
      "_ained__": 7029,
      "_ainer__": 7030,
      "_aign__": 7031,
      "_aidek": 7032,
      "_rd": 7033,
      "_rin": 7034,
      "_ran": 7035,
      "_rey__": 7036,
      "_rot__": 7037,
      "_rgh": 7038,
      "_ris__": 7039,
      "_rell__": 7040,
      "_rice__": 7041,
      "_rated__": 7042,
      "_rman__": 7043,
      "_rink__": 7044,
      "_ront__": 7045,
      "_riced__": 7046,
      "_ructive__": 7047,
      "_uk": 7048,
      "_uin": 7049,
      "_uver__": 7050,
      "_uate__": 7051,
      "_uous__": 7052,
      "_uil": 7053,
      "_utty__": 7054,
      "_uable__": 7055,
      "_uum__": 7056,
      "_ual": 7057,
      "_uire__": 7058,
      "_ubby__": 7059,
      "_ulled__": 7060,
      "_ustr": 7061,
      "_ubbing__": 7062,
      "_urally__": 7063,
      "_ueberry__": 7064,
      "_to__": 7065,
      "_tre__": 7066,
      "_tit": 7067,
      "_ten": 7068,
      "_tor__": 7069,
      "_try__": 7070,
      "_tly__": 7071,
      "_tch__": 7072,
      "_tica__": 7073,
      "_tow": 7074,
      "_ters__": 7075,
      "_tma": 7076,
      "_tant__": 7077,
      "_tite__": 7078,
      "_tching__": 7079,
      "_tons__": 7080,
      "_tched__": 7081,
      "_tense__": 7082,
      "_tside__": 7083,
      "_telle__": 7084,
      "_tini__": 7085,
      "_town__": 7086,
      "_tub__": 7087,
      "_torc": 7088,
      "_tcha__": 7089,
      "_tpants__": 7090,
      "_tback__": 7091,
      "_trot__": 7092,
      "_tuous__": 7093,
      "_ip": 7094,
      "_ió": 7095,
      "_ied__": 7096,
      "_iat": 7097,
      "_ili": 7098,
      "_iff__": 7099,
      "_ild": 7100,
      "_ima": 7101,
      "_iant__": 7102,
      "_ife__": 7103,
      "_ims__": 7104,
      "_iated__": 7105,
      "_iping__": 7106,
      "_ioc": 7107,
      "_iam__": 7108,
      "_iker__": 7109,
      "_ief__": 7110,
      "_iot": 7111,
      "_ipt__": 7112,
      "_ilian__": 7113,
      "_ielle__": 7114,
      "_ield__": 7115,
      "_ipes__": 7116,
      "_iod__": 7117,
      "_iju": 7118,
      "_ng__": 7119,
      "_ni__": 7120,
      "_non__": 7121,
      "_nal__": 7122,
      "_ness__": 7123,
      "_nob__": 7124,
      "_nment__": 7125,
      "_net": 7126,
      "_nsh": 7127,
      "_nect__": 7128,
      "_nad": 7129,
      "_ness": 7130,
      "_noc": 7131,
      "_nded__": 7132,
      "_nsing__": 7133,
      "_ney": 7134,
      "_nily__": 7135,
      "_neath__": 7136,
      "_sp__": 7137,
      "_sk": 7138,
      "_sb": 7139,
      "_some__": 7140,
      "_sack__": 7141,
      "_sion__": 7142,
      "_sick__": 7143,
      "_sers__": 7144,
      "_sday__": 7145,
      "_site__": 7146,
      "_sents__": 7147,
      "_sition__": 7148,
      "_sley__": 7149,
      "_sider__": 7150,
      "_sides__": 7151,
      "_singly__": 7152,
      "_seat__": 7153,
      "_sman": 7154,
      "_sema__": 7155,
      "_succ": 7156,
      "_hi__": 7157,
      "_how__": 7158,
      "_hen__": 7159,
      "_hook__": 7160,
      "_hine__": 7161,
      "_hal__": 7162,
      "_hear": 7163,
      "_hil": 7164,
      "_ham": 7165,
      "_hip__": 7166,
      "_ham__": 7167,
      "_hatt": 7168,
      "_hug": 7169,
      "_hiker__": 7170,
      "_ov": 7171,
      "_oz": 7172,
      "_ov__": 7173,
      "_oid": 7174,
      "_ots__": 7175,
      "_oked__": 7176,
      "_oga": 7177,
      "_oard__": 7178,
      "_oic__": 7179,
      "_ohhh__": 7180,
      "_othy__": 7181,
      "_otic__": 7182,
      "_odest__": 7183,
      "_ohhhh": 7184,
      "_oaa__": 7185,
      "_gm__": 7186,
      "_gan": 7187,
      "_gey__": 7188,
      "_gom": 7189,
      "_gon__": 7190,
      "_ger": 7191,
      "_gna__": 7192,
      "_gga": 7193,
      "_gla": 7194,
      "_gum": 7195,
      "_gest__": 7196,
      "_gent": 7197,
      "_gation__": 7198,
      "_gins__": 7199,
      "_gled__": 7200,
      "_gster__": 7201,
      "_gering__": 7202,
      "_gover__": 7203,
      "_gano__": 7204,
      "_gsy__": 7205,
      "_gmental__": 7206,
      "_mw": 7207,
      "_mi__": 7208,
      "_mar": 7209,
      "_mst": 7210,
      "_mat": 7211,
      "_mid__": 7212,
      "_mid": 7213,
      "_mem": 7214,
      "_mel__": 7215,
      "_mell": 7216,
      "_mes": 7217,
      "_mal__": 7218,
      "_mble__": 7219,
      "_mies__": 7220,
      "_mark__": 7221,
      "_mited__": 7222,
      "_mos": 7223,
      "_mney__": 7224,
      "_mless__": 7225,
      "_ming": 7226,
      "_mits__": 7227,
      "_py__": 7228,
      "_pin": 7229,
      "_pea": 7230,
      "_pet__": 7231,
      "_pro": 7232,
      "_pit__": 7233,
      "_pop": 7234,
      "_pate__": 7235,
      "_pers__": 7236,
      "_pted__": 7237,
      "_peri": 7238,
      "_pill": 7239,
      "_pson__": 7240,
      "_pher__": 7241,
      "_ples__": 7242,
      "_phere__": 7243,
      "_pare__": 7244,
      "_pkin__": 7245,
      "_pean__": 7246,
      "_picks__": 7247,
      "_packing__": 7248,
      "_pider__": 7249,
      "_pected__": 7250,
      "_pboard__": 7251,
      "_ptured__": 7252,
      "_poning__": 7253,
      "_pologists__": 7254,
      "_priced__": 7255,
      "_pipes__": 7256,
      "_vid": 7257,
      "_vell": 7258,
      "_vate__": 7259,
      "_vent": 7260,
      "_vide__": 7261,
      "_vable__": 7262,
      "_vil__": 7263,
      "_vory__": 7264,
      "_vember__": 7265,
      "_xy__": 7266,
      "_xing__": 7267,
      "_xin__": 7268,
      "_xed": 7269,
      "_xtrot__": 7270,
      "_57__": 7271,
      "_dw": 7272,
      "_dk": 7273,
      "_dow__": 7274,
      "_dra": 7275,
      "_del__": 7276,
      "_date__": 7277,
      "_dal__": 7278,
      "_dess__": 7279,
      "_ders__": 7280,
      "_days__": 7281,
      "_dam": 7282,
      "_due__": 7283,
      "_dation__": 7284,
      "_dful__": 7285,
      "_ddle__": 7286,
      "_dded__": 7287,
      "_dged__": 7288,
      "_drew__": 7289,
      "_dney__": 7290,
      "_dals__": 7291,
      "_duation__": 7292,
      "_dale__": 7293,
      "_dboard__": 7294,
      "_dnight__": 7295,
      "_dgie__": 7296,
      "_dison__": 7297,
      "_dreaming__": 7298,
      "_drated__": 7299,
      "_dsley__": 7300,
      "_wd__": 7301,
      "_woo": 7302,
      "_win__": 7303,
      "_wau": 7304,
      "_wood__": 7305,
      "_wal__": 7306,
      "_wers__": 7307,
      "_wings__": 7308,
      "_witting__": 7309,
      "_wsp": 7310,
      "_word__": 7311,
      "_wler__": 7312,
      "_while__": 7313,
      "_weight__": 7314,
      "_ki__": 7315,
      "_kery__": 7316,
      "_kow": 7317,
      "_kie__": 7318,
      "_kee__": 7319,
      "_kely__": 7320,
      "_kul": 7321,
      "_kish__": 7322,
      "_kson__": 7323,
      "_kful__": 7324,
      "_kings__": 7325,
      "_kah__": 7326,
      "_kot": 7327,
      "_keys__": 7328,
      "_kbook__": 7329,
      "_kov__": 7330,
      "_fy__": 7331,
      "_fa__": 7332,
      "_fé__": 7333,
      "_fac": 7334,
      "_fite__": 7335,
      "_fty__": 7336,
      "_fort__": 7337,
      "_fman__": 7338,
      "_fici": 7339,
      "_fact__": 7340,
      "_fred": 7341,
      "_fig": 7342,
      "_fulf": 7343,
      "_fuln": 7344,
      "_yy__": 7345,
      "_yd__": 7346,
      "_yor__": 7347,
      "_yst": 7348,
      "_yal__": 7349,
      "_yond__": 7350,
      "_yles__": 7351,
      "_yfriend__": 7352,
      "_yot": 7353,
      "_ypt__": 7354,
      "_ycle__": 7355,
      "_yfi": 7356,
      "_yback__": 7357,
      "_yuns__": 7358,
      "_bing__": 7359,
      "_bon__": 7360,
      "_bri": 7361,
      "_bir": 7362,
      "_bly__": 7363,
      "_bur": 7364,
      "_bal__": 7365,
      "_bla": 7366,
      "_best": 7367,
      "_bber__": 7368,
      "_bie__": 7369,
      "_best__": 7370,
      "_bound__": 7371,
      "_bling__": 7372,
      "_bach": 7373,
      "_bed": 7374,
      "_bian__": 7375,
      "_bread__": 7376,
      "_bugs__": 7377,
      "_backs__": 7378,
      "_bek__": 7379,
      "_bag__": 7380,
      "_buil": 7381,
      "_za__": 7382,
      "_zen__": 7383,
      "_zor__": 7384,
      "_zard__": 7385,
      "_zzy__": 7386,
      "_zant": 7387,
      "_zens__": 7388,
      "_ziest__": 7389,
      "_zida__": 7390,
      "_zilian__": 7391,
      "_zbla": 7392,
      "_PE": 7393,
      "_Pre": 7394,
      "_.....__": 7395,
      "_que__": 7396,
      "_RK__": 7397,
      "_RE": 7398,
      "_OO__": 7399,
      "_ME__": 7400,
      "_MB__": 7401,
      "_ja__": 7402,
      "_jack__": 7403,
      "_jure__": 7404,
      "_jam": 7405,
      "_jak__": 7406,
      "_23__": 7407,
      "_CK__": 7408,
      "_CT": 7409,
      "_Clane__": 7410,
      "_?!__": 7411,
      "_NU": 7412,
      "_NG": 7413,
      "_NK": 7414,
      "_Nail": 7415,
      "_TCH__": 7416,
      "_13": 7417,
      "_UL": 7418,
      "_UNK": 7419,
      "_30__": 7420,
      "_39__": 7421,
      "_34": 7422,
      "_ER__": 7423,
      "_EN__": 7424,
      "_SE__": 7425,
      "_SA": 7426,
      "_SPE": 7427,
      "_Guire__": 7428,
      "_GRE": 7429,
      "_434": 7430,
      "_FUL": 7431,
      "_LY__": 7432,
      "_VE__": 7433,
      "_VP__": 7434,
      "thea": 7435,
      "ther": 7436,
      "thor": 7437,
      "thre": 7438,
      "thri": 7439,
      "thro": 7440,
      "them": 7441,
      "thick__": 7442,
      "thirty__": 7443,
      "thread__": 7444,
      "thigh__": 7445,
      "thiev": 7446,
      "throws__": 7447,
      "thrice__": 7448,
      "_inar": 7449,
      "_inal__": 7450,
      "_inion__": 7451,
      "_inding__": 7452,
      "_inny__": 7453,
      "_inue__": 7454,
      "_inity__": 7455,
      "_inting__": 7456,
      "_inar__": 7457,
      "_inci": 7458,
      "_inman__": 7459,
      "_inese__": 7460,
      "_inky__": 7461,
      "_inaaaa__": 7462,
      "_inten": 7463,
      "_eap__": 7464,
      "_eam__": 7465,
      "_eara": 7466,
      "_eaning__": 7467,
      "_eating__": 7468,
      "_eaker__": 7469,
      "_oull": 7470,
      "_outs__": 7471,
      "_anon__": 7472,
      "_anth": 7473,
      "_anti": 7474,
      "_ange__": 7475,
      "_anies__": 7476,
      "_anted__": 7477,
      "_anic__": 7478,
      "_anese__": 7479,
      "_anley__": 7480,
      "_anket__": 7481,
      "_anges__": 7482,
      "_aneous__": 7483,
      "_anzbla": 7484,
      "_oner__": 7485,
      "_onom": 7486,
      "_onse__": 7487,
      "_onent__": 7488,
      "_ongs__": 7489,
      "_onoun": 7490,
      "_onian__": 7491,
      "_onven": 7492,
      "_onial__": 7493,
      "_onfig": 7494,
      "haa__": 7495,
      "hall": 7496,
      "hair": 7497,
      "hamm": 7498,
      "haunt__": 7499,
      "hairi": 7500,
      "hazel__": 7501,
      "harass": 7502,
      "hazard__": 7503,
      "_oos__": 7504,
      "_oop__": 7505,
      "_ooood__": 7506,
      "_ools__": 7507,
      "_oops__": 7508,
      "_oooo__": 7509,
      "_ooting__": 7510,
      "_oooaa__": 7511,
      "_ooming": 7512,
      "_oopy__": 7513,
      "_omy__": 7514,
      "_oming__": 7515,
      "_omen": 7516,
      "_itt__": 7517,
      "_ith__": 7518,
      "_iter": 7519,
      "_itor__": 7520,
      "_iters__": 7521,
      "_itical__": 7522,
      "_itas__": 7523,
      "_itals__": 7524,
      "_itional__": 7525,
      "_itcas": 7526,
      "_itressing__": 7527,
      "_itiated__": 7528,
      "_llon__": 7529,
      "_llet__": 7530,
      "_lland": 7531,
      "_llenge__": 7532,
      "_lliant__": 7533,
      "_llots__": 7534,
      "knit__": 7535,
      "knack__": 7536,
      "knitting__": 7537,
      "knap": 7538,
      "knees__": 7539,
      "knowing__": 7540,
      "knife__": 7541,
      "_ghhh__": 7542,
      "_ghest__": 7543,
      "_ghty__": 7544,
      "_ghurt__": 7545,
      "_erk__": 7546,
      "_eron__": 7547,
      "_erse__": 7548,
      "_erth": 7549,
      "_erce__": 7550,
      "_erie__": 7551,
      "_eroney__": 7552,
      "_erely__": 7553,
      "_erab": 7554,
      "_erful__": 7555,
      "_erman__": 7556,
      "_erations__": 7557,
      "_erfa": 7558,
      "_erring__": 7559,
      "_eroid__": 7560,
      "_ereo__": 7561,
      "_erpill": 7562,
      "_orow__": 7563,
      "_ored__": 7564,
      "_orse__": 7565,
      "_ores": 7566,
      "_orate__": 7567,
      "_ording__": 7568,
      "_orter__": 7569,
      "_ories__": 7570,
      "_orable__": 7571,
      "_orus__": 7572,
      "_orming__": 7573,
      "_ortive__": 7574,
      "_orney__": 7575,
      "_orian__": 7576,
      "_oretically__": 7577,
      "_orro__": 7578,
      "_orhood__": 7579,
      "_icy__": 7580,
      "_ict__": 7581,
      "_ico__": 7582,
      "_icking__": 7583,
      "_icit__": 7584,
      "_icide__": 7585,
      "_icule__": 7586,
      "_icular__": 7587,
      "_icacy__": 7588,
      "war__": 7589,
      "wave__": 7590,
      "waist": 7591,
      "waved__": 7592,
      "warr": 7593,
      "waited__": 7594,
      "waah__": 7595,
      "walls__": 7596,
      "waste__": 7597,
      "waaay__": 7598,
      "wallets__": 7599,
      "wagering__": 7600,
      "waxing__": 7601,
      "wallet__": 7602,
      "_aren": 7603,
      "_arly__": 7604,
      "_argh__": 7605,
      "_aries__": 7606,
      "_aros": 7607,
      "_arant": 7608,
      "_arella__": 7609,
      "_arlight__": 7610,
      "_arrg": 7611,
      "_arium__": 7612,
      "_array__": 7613,
      "_arkly__": 7614,
      "_ardess__": 7615,
      "_thm__": 7616,
      "_thed__": 7617,
      "_thro": 7618,
      "_them": 7619,
      "_thery__": 7620,
      "_thill": 7621,
      "_thful__": 7622,
      "_thouse__": 7623,
      "_thed": 7624,
      "_think__": 7625,
      "_thered__": 7626,
      "_thrit": 7627,
      "_thod__": 7628,
      "_thpicks__": 7629,
      "_aces": 7630,
      "_acked__": 7631,
      "_acles__": 7632,
      "_active__": 7633,
      "_acular__": 7634,
      "_aceable__": 7635,
      "_enes__": 7636,
      "_enna__": 7637,
      "_ente__": 7638,
      "_enist__": 7639,
      "_enpea": 7640,
      "_enomen": 7641,
      "what": 7642,
      "whee": 7643,
      "whol": 7644,
      "whad": 7645,
      "whipp": 7646,
      "whipped__": 7647,
      "whistle__": 7648,
      "whiff__": 7649,
      "whoops__": 7650,
      "bend__": 7651,
      "bees__": 7652,
      "beside__": 7653,
      "bela__": 7654,
      "beeps__": 7655,
      "besides__": 7656,
      "begins__": 7657,
      "beyond__": 7658,
      "lid__": 7659,
      "lit__": 7660,
      "lied__": 7661,
      "lips__": 7662,
      "liar__": 7663,
      "lima__": 7664,
      "light": 7665,
      "lilies__": 7666,
      "libbing__": 7667,
      "limb__": 7668,
      "lighting__": 7669,
      "stood__": 7670,
      "stays__": 7671,
      "stable__": 7672,
      "step__": 7673,
      "stoc": 7674,
      "stew": 7675,
      "stair": 7676,
      "stairs__": 7677,
      "stim": 7678,
      "stock__": 7679,
      "stay": 7680,
      "stunning__": 7681,
      "stamp__": 7682,
      "style__": 7683,
      "steel__": 7684,
      "steps__": 7685,
      "stores__": 7686,
      "steered__": 7687,
      "stink": 7688,
      "stung__": 7689,
      "styles__": 7690,
      "steam__": 7691,
      "stoop__": 7692,
      "stereo__": 7693,
      "stories__": 7694,
      "sticking__": 7695,
      "shy__": 7696,
      "shh__": 7697,
      "shed__": 7698,
      "shook__": 7699,
      "shin__": 7700,
      "shma": 7701,
      "shows__": 7702,
      "shark__": 7703,
      "shed": 7704,
      "shiny__": 7705,
      "shamp": 7706,
      "shining__": 7707,
      "ships__": 7708,
      "shuff": 7709,
      "shift__": 7710,
      "shrill__": 7711,
      "shrink__": 7712,
      "shooting__": 7713,
      "Tho__": 7714,
      "Three__": 7715,
      "Third__": 7716,
      "Thata__": 7717,
      "Theta__": 7718,
      "Thai__": 7719,
      "_reen__": 7720,
      "_reet__": 7721,
      "_reds__": 7722,
      "_repl": 7723,
      "_refire__": 7724,
      "_rectly__": 7725,
      "_resents__": 7726,
      "_sta__": 7727,
      "_ston__": 7728,
      "_stle__": 7729,
      "_stri": 7730,
      "_stry__": 7731,
      "_stra": 7732,
      "_stone__": 7733,
      "_store__": 7734,
      "_stment__": 7735,
      "_stud": 7736,
      "_stal": 7737,
      "_star__": 7738,
      "_sticks__": 7739,
      "_sting": 7740,
      "_stime__": 7741,
      "_stwood__": 7742,
      "_stanti": 7743,
      "_stacles__": 7744,
      "_ature__": 7745,
      "_atic__": 7746,
      "_atable__": 7747,
      "_ators__": 7748,
      "_attern": 7749,
      "_atician__": 7750,
      "_atural__": 7751,
      "_atives__": 7752,
      "witness": 7753,
      "_eeen__": 7754,
      "_eese__": 7755,
      "_eeding__": 7756,
      "_eezed__": 7757,
      "_eeper": 7758,
      "_eeler__": 7759,
      "wander__": 7760,
      "rear__": 7761,
      "reatt": 7762,
      "reach__": 7763,
      "react": 7764,
      "reads__": 7765,
      "reassure__": 7766,
      "reality__": 7767,
      "readers__": 7768,
      "dogs__": 7769,
      "dogg": 7770,
      "docum": 7771,
      "docile__": 7772,
      "dozens__": 7773,
      "_rip__": 7774,
      "_ries__": 7775,
      "_riel__": 7776,
      "_rids__": 7777,
      "_riable__": 7778,
      "_riously__": 7779,
      "_rigu": 7780,
      "_ribbiani__": 7781,
      "_rienn": 7782,
      "_rified__": 7783,
      "_ription__": 7784,
      "_roe__": 7785,
      "_roy__": 7786,
      "_roph": 7787,
      "sets__": 7788,
      "self__": 7789,
      "setting__": 7790,
      "seller__": 7791,
      "separ": 7792,
      "session__": 7793,
      "self": 7794,
      "setback__": 7795,
      "sevent": 7796,
      "guard__": 7797,
      "guns__": 7798,
      "guides__": 7799,
      "guests__": 7800,
      "guarant": 7801,
      "abort__": 7802,
      "abys": 7803,
      "aboard__": 7804,
      "onion__": 7805,
      "onions__": 7806,
      "onstage__": 7807,
      "onto__": 7808,
      "_elt__": 7809,
      "_elor__": 7810,
      "_elry__": 7811,
      "_elick__": 7812,
      "_elash__": 7813,
      "..!__": 7814,
      "_irs__": 7815,
      "_iris__": 7816,
      "_irms__": 7817,
      "tov__": 7818,
      "toss__": 7819,
      "toward__": 7820,
      "topic__": 7821,
      "total__": 7822,
      "_tton__": 7823,
      "_ttle__": 7824,
      "_ttest__": 7825,
      "_ttern": 7826,
      "_ttiest__": 7827,
      "_ttime__": 7828,
      "max__": 7829,
      "main__": 7830,
      "magn": 7831,
      "maaa": 7832,
      "mask__": 7833,
      "mayor__": 7834,
      "mainten": 7835,
      "mathem": 7836,
      "_ids__": 7837,
      "_idant__": 7838,
      "_idic__": 7839,
      "_idity__": 7840,
      "_idual__": 7841,
      "_iday": 7842,
      "_idify__": 7843,
      "_identally__": 7844,
      "_idmark__": 7845,
      "Whose__": 7846,
      "Whoooo": 7847,
      "Whenever__": 7848,
      "Whistle__": 7849,
      "Whazz": 7850,
      "Whoooaa__": 7851,
      "Wheeler__": 7852,
      "ness__": 7853,
      "nether__": 7854,
      "neut": 7855,
      "neuro": 7856,
      "newsp": 7857,
      "_ppa__": 7858,
      "_ppin__": 7859,
      "_ppies__": 7860,
      "_pplies__": 7861,
      "goss": 7862,
      "goal__": 7863,
      "gods__": 7864,
      "gown__": 7865,
      "gold": 7866,
      "gover": 7867,
      "cap__": 7868,
      "caf__": 7869,
      "cave__": 7870,
      "cake__": 7871,
      "cash__": 7872,
      "camp__": 7873,
      "cases__": 7874,
      "cabin": 7875,
      "tad__": 7876,
      "tab__": 7877,
      "tabo": 7878,
      "tabs__": 7879,
      "tamp": 7880,
      "tail__": 7881,
      "taping__": 7882,
      "taped__": 7883,
      "tallies__": 7884,
      "ants__": 7885,
      "angu": 7886,
      "angle__": 7887,
      "angry__": 7888,
      "anima": 7889,
      "anvil__": 7890,
      "anthro": 7891,
      "hire__": 7892,
      "hill__": 7893,
      "hike__": 7894,
      "hips__": 7895,
      "hilar": 7896,
      "hibach": 7897,
      "meal__": 7898,
      "meadow__": 7899,
      "plinky__": 7900,
      "sand__": 7901,
      "sage__": 7902,
      "sala": 7903,
      "samp": 7904,
      "sail__": 7905,
      "sadd": 7906,
      "safet": 7907,
      "sabot": 7908,
      "savings__": 7909,
      "salm": 7910,
      "savory__": 7911,
      "_eces__": 7912,
      "_ecch": 7913,
      "_ecure__": 7914,
      "_ecies__": 7915,
      "_ecrac": 7916,
      "_ecess": 7917,
      "_ecorate__": 7918,
      "susp": 7919,
      "super__": 7920,
      "sung": 7921,
      "sullies__": 7922,
      "sung__": 7923,
      "superi": 7924,
      "suitcas": 7925,
      "suicide__": 7926,
      "surefire__": 7927,
      "Rock__": 7928,
      "Rocks__": 7929,
      "Robbie__": 7930,
      "Rodney__": 7931,
      "Joel__": 7932,
      "_anda__": 7933,
      "_ander__": 7934,
      "_andon__": 7935,
      "_andel__": 7936,
      "_andro__": 7937,
      "_andex__": 7938,
      "_aud__": 7939,
      "_aucoma__": 7940,
      "_aumat": 7941,
      "_aurids__": 7942,
      "loong__": 7943,
      "load__": 7944,
      "losing__": 7945,
      "loses__": 7946,
      "lobbing__": 7947,
      "losers__": 7948,
      "lodged__": 7949,
      "loyal__": 7950,
      "chi__": 7951,
      "chou__": 7952,
      "ching__": 7953,
      "chem": 7954,
      "chew__": 7955,
      "chunk__": 7956,
      "chase__": 7957,
      "chord__": 7958,
      "champ": 7959,
      "cheer__": 7960,
      "champ__": 7961,
      "chews__": 7962,
      "cheered__": 7963,
      "chalk__": 7964,
      "chubby__": 7965,
      "cheap__": 7966,
      "chorus__": 7967,
      "babe__": 7968,
      "bald": 7969,
      "based__": 7970,
      "bail__": 7971,
      "bash__": 7972,
      "bagu": 7973,
      "badly__": 7974,
      "_ras__": 7975,
      "_rase__": 7976,
      "_raine__": 7977,
      "_rage__": 7978,
      "_raying__": 7979,
      "_raps__": 7980,
      "_raining__": 7981,
      "_ramental__": 7982,
      "_ragm__": 7983,
      "_ramid__": 7984,
      "PhD__": 7985,
      "Phone__": 7986,
      "Phill": 7987,
      "Phew": 7988,
      "Phase__": 7989,
      "Phay": 7990,
      "Phob": 7991,
      "Phonetically__": 7992,
      "someday__": 7993,
      "somethin__": 7994,
      "somehow__": 7995,
      "Chur": 7996,
      "Chad__": 7997,
      "Choose__": 7998,
      "Chuck": 7999,
      "Chris__": 8000,
      "Chief__": 8001,
      "Chinese__": 8002,
      "Cheese__": 8003,
      "mop__": 8004,
      "moi__": 8005,
      "moder": 8006,
      "mozz": 8007,
      "moist__": 8008,
      "model": 8009,
      "motorc": 8010,
      "model__": 8011,
      "_tia__": 8012,
      "_tim__": 8013,
      "_tier__": 8014,
      "_tile__": 8015,
      "_tiling__": 8016,
      "_timid": 8017,
      "_tifact__": 8018,
      "Goin__": 8019,
      "Gold": 8020,
      "Gotta__": 8021,
      "Gobb__": 8022,
      "Gotcha__": 8023,
      "_ems__": 8024,
      "_emp__": 8025,
      "_ements__": 8026,
      "_emas__": 8027,
      "_emics__": 8028,
      "theory__": 8029,
      "theoretically__": 8030,
      "ink__": 8031,
      "inch__": 8032,
      "injec": 8033,
      "innate__": 8034,
      "innoc": 8035,
      "injure__": 8036,
      "initiated__": 8037,
      "intimid": 8038,
      "_sses__": 8039,
      "_ssin__": 8040,
      "_ssil__": 8041,
      "_ssuring__": 8042,
      "_ssues__": 8043,
      "_ssword__": 8044,
      "_ssidic__": 8045,
      "_ssandro__": 8046,
      "_urning__": 8047,
      "_uration__": 8048,
      "_urtin__": 8049,
      "_urbing__": 8050,
      "_lied__": 8051,
      "_life__": 8052,
      "_lized__": 8053,
      "_ligation__": 8054,
      "_likely__": 8055,
      "_lierth": 8056,
      "event__": 8057,
      "tip__": 8058,
      "tips__": 8059,
      "timing__": 8060,
      "tipped__": 8061,
      "timer__": 8062,
      "tissues__": 8063,
      "_ittarius__": 8064,
      "_elley__": 8065,
      "_ellers__": 8066,
      "_unate__": 8067,
      "_unked__": 8068,
      "_unken__": 8069,
      "_uncti": 8070,
      "_opag": 8071,
      "_opot": 8072,
      "anytime__": 8073,
      "Monnnnn__": 8074,
      "Monroe__": 8075,
      "unear": 8076,
      "unrea": 8077,
      "unable__": 8078,
      "unfort": 8079,
      "unex": 8080,
      "unfortunately__": 8081,
      "unsucc": 8082,
      "unhook__": 8083,
      "unmar": 8084,
      "unpop": 8085,
      "unwitting__": 8086,
      "unfulf": 8087,
      "unlikely__": 8088,
      "_utal__": 8089,
      "_uters__": 8090,
      "_utation__": 8091,
      "_utec__": 8092,
      "_esale__": 8093,
      "_escope__": 8094,
      "_ctity__": 8095,
      "alot__": 8096,
      "alum": 8097,
      "altern": 8098,
      "although__": 8099,
      "happier__": 8100,
      "_isy__": 8101,
      "_isible__": 8102,
      "_isma__": 8103,
      "_isoning__": 8104,
      "_isfy__": 8105,
      "_isstud": 8106,
      "talker__": 8107,
      "talky__": 8108,
      "mum__": 8109,
      "mush": 8110,
      "multi": 8111,
      "musta__": 8112,
      "spin__": 8113,
      "spit__": 8114,
      "spice__": 8115,
      "sprea": 8116,
      "spying__": 8117,
      "spends__": 8118,
      "spack": 8119,
      "spins__": 8120,
      "spatt": 8121,
      "spect": 8122,
      "spont": 8123,
      "spread__": 8124,
      "spring__": 8125,
      "split__": 8126,
      "spleeeen__": 8127,
      "spagh": 8128,
      "sprin": 8129,
      "spaces": 8130,
      "spelt__": 8131,
      "species__": 8132,
      "spandex__": 8133,
      "spraying__": 8134,
      "_eared__": 8135,
      "coma__": 8136,
      "comic__": 8137,
      "comfort__": 8138,
      "studies__": 8139,
      "stumble__": 8140,
      "stupider__": 8141,
      "bums__": 8142,
      "bugger__": 8143,
      "bump__": 8144,
      "buyer__": 8145,
      "busted__": 8146,
      "build__": 8147,
      "buash__": 8148,
      "bumb__": 8149,
      "bullets__": 8150,
      "bulging__": 8151,
      "fail__": 8152,
      "faint__": 8153,
      "fabr": 8154,
      "fasc": 8155,
      "faith__": 8156,
      "faeces__": 8157,
      "_lock__": 8158,
      "_load__": 8159,
      "_logi": 8160,
      "_logging__": 8161,
      "_logne__": 8162,
      "_loca": 8163,
      "_logna__": 8164,
      "becoming__": 8165,
      "lag__": 8166,
      "lake__": 8167,
      "lame__": 8168,
      "lads__": 8169,
      "laying__": 8170,
      "lasts__": 8171,
      "layer__": 8172,
      "lasted__": 8173,
      "lady": 8174,
      "_chess__": 8175,
      "_chies__": 8176,
      "_chic__": 8177,
      "_chable__": 8178,
      "_chasing__": 8179,
      "_child": 8180,
      "_chhi__": 8181,
      "_lare__": 8182,
      "_lavi": 8183,
      "_lains__": 8184,
      "_ladel": 8185,
      "_lasses__": 8186,
      "coucher__": 8187,
      "couples__": 8188,
      "courage__": 8189,
      "marsh": 8190,
      "maroon__": 8191,
      "margar": 8192,
      "marvel__": 8193,
      "martini__": 8194,
      "mariju": 8195,
      "marinar": 8196,
      "_estion__": 8197,
      "_estep__": 8198,
      "_fford__": 8199,
      "_ffany__": 8200,
      "_fflin": 8201,
      "_ffirms__": 8202,
      "bossy__": 8203,
      "boats__": 8204,
      "bowl__": 8205,
      "botched__": 8206,
      "bologna__": 8207,
      "_istry__": 8208,
      "_istical__": 8209,
      "tweezers__": 8210,
      "_bobo__": 8211,
      "Show__": 8212,
      "Shhh__": 8213,
      "Shouldn__": 8214,
      "Shall__": 8215,
      "Shame__": 8216,
      "Shamp": 8217,
      "Shrill__": 8218,
      "Shelley__": 8219,
      "_lders__": 8220,
      "nail": 8221,
      "napping__": 8222,
      "nasty__": 8223,
      "names": 8224,
      "napkin__": 8225,
      "_rounded__": 8226,
      "cole__": 8227,
      "coin__": 8228,
      "cover": 8229,
      "coach": 8230,
      "coast__": 8231,
      "coinc": 8232,
      "cows__": 8233,
      "costs__": 8234,
      "cocky__": 8235,
      "cocoa__": 8236,
      "coyot": 8237,
      "cotton__": 8238,
      "cologne__": 8239,
      "pep__": 8240,
      "pets__": 8241,
      "petite__": 8242,
      "pedals__": 8243,
      "askin__": 8244,
      "asham": 8245,
      "asbest": 8246,
      "fried__": 8247,
      "fright": 8248,
      "frisb": 8249,
      "proves__": 8250,
      "projec": 8251,
      "progra": 8252,
      "produc": 8253,
      "process__": 8254,
      "progress__": 8255,
      "property__": 8256,
      "press__": 8257,
      "preppy__": 8258,
      "prepar": 8259,
      "prepare__": 8260,
      "prettiest__": 8261,
      "pressuring__": 8262,
      "intended__": 8263,
      "intrigu": 8264,
      "girlie__": 8265,
      "giraff": 8266,
      "_ctus__": 8267,
      "_ctuated__": 8268,
      "exit__": 8269,
      "exam__": 8270,
      "examp": 8271,
      "exotic__": 8272,
      "swore__": 8273,
      "sword__": 8274,
      "swirl__": 8275,
      "swift__": 8276,
      "swallow__": 8277,
      "bills__": 8278,
      "_eryear__": 8279,
      "wee__": 8280,
      "weight__": 8281,
      "wedd": 8282,
      "weights__": 8283,
      "wedgie__": 8284,
      "_efcase__": 8285,
      "_ump__": 8286,
      "_umes__": 8287,
      "_lez__": 8288,
      "_letting__": 8289,
      "_leboard__": 8290,
      "_lette__": 8291,
      "_lepin": 8292,
      "Reaffirms__": 8293,
      "firm__": 8294,
      "fires__": 8295,
      "trick": 8296,
      "tricks__": 8297,
      "trench__": 8298,
      "tryin__": 8299,
      "tracks__": 8300,
      "traumat": 8301,
      "believes__": 8302,
      "believable__": 8303,
      "quack__": 8304,
      "quali": 8305,
      "queens__": 8306,
      "_ette__": 8307,
      "_etti__": 8308,
      "_ettie__": 8309,
      "babes__": 8310,
      "babbling__": 8311,
      "envel": 8312,
      "enema__": 8313,
      "entit": 8314,
      "enemas__": 8315,
      "hock": 8316,
      "holland": 8317,
      "hottest__": 8318,
      "holoca": 8319,
      "womba__": 8320,
      "loooot__": 8321,
      "pays__": 8322,
      "passed__": 8323,
      "paint__": 8324,
      "paths__": 8325,
      "passa": 8326,
      "passing__": 8327,
      "painted__": 8328,
      "paleont": 8329,
      "paleontology__": 8330,
      "pathetic__": 8331,
      "passion__": 8332,
      "papers__": 8333,
      "payback__": 8334,
      "pastry__": 8335,
      "passin__": 8336,
      "filling__": 8337,
      "filled__": 8338,
      "fixed__": 8339,
      "fighting__": 8340,
      "filter__": 8341,
      "fixin__": 8342,
      "fifty__": 8343,
      "fierce__": 8344,
      "_deral__": 8345,
      "_derful__": 8346,
      "nodded__": 8347,
      "nostri": 8348,
      "noisy__": 8349,
      "_selor__": 8350,
      "_ulu__": 8351,
      "_uled__": 8352,
      "_ulate__": 8353,
      "_ulance__": 8354,
      "_ulative__": 8355,
      "_ularly__": 8356,
      "_mps__": 8357,
      "_mple__": 8358,
      "_mpled__": 8359,
      "Stu__": 8360,
      "Stood__": 8361,
      "Stand__": 8362,
      "Stating__": 8363,
      "States__": 8364,
      "String__": 8365,
      "Stunning__": 8366,
      "Stitches__": 8367,
      "Stanley__": 8368,
      "Storming__": 8369,
      "Starlight__": 8370,
      "Street__": 8371,
      "Strip__": 8372,
      "contain": 8373,
      "condu": 8374,
      "condom__": 8375,
      "constr": 8376,
      "connect__": 8377,
      "diets__": 8378,
      "divert__": 8379,
      "diaph": 8380,
      "dilated__": 8381,
      "divide__": 8382,
      "fork__": 8383,
      "fort__": 8384,
      "form__": 8385,
      "forth__": 8386,
      "forest__": 8387,
      "forge": 8388,
      "forms__": 8389,
      "former": 8390,
      "forcing__": 8391,
      "forehead__": 8392,
      "gaze__": 8393,
      "gains__": 8394,
      "gallon__": 8395,
      "gathered__": 8396,
      "leak__": 8397,
      "lead__": 8398,
      "leaf__": 8399,
      "leading__": 8400,
      "leaves__": 8401,
      "leaned__": 8402,
      "leathery__": 8403,
      "scuse__": 8404,
      "scale__": 8405,
      "scans__": 8406,
      "scores__": 8407,
      "scrum__": 8408,
      "screaming__": 8409,
      "scouts__": 8410,
      "scenes__": 8411,
      "_indler__": 8412,
      "sections__": 8413,
      "War__": 8414,
      "Wasn__": 8415,
      "Wash__": 8416,
      "Walls__": 8417,
      "Waaay__": 8418,
      "Wayn": 8419,
      "Waitressing__": 8420,
      "pox__": 8421,
      "poke__": 8422,
      "pole__": 8423,
      "poster__": 8424,
      "positive__": 8425,
      "posit": 8426,
      "poppers__": 8427,
      "polish__": 8428,
      "poison__": 8429,
      "position__": 8430,
      "pointing__": 8431,
      "poems__": 8432,
      "poisoning__": 8433,
      "mini__": 8434,
      "minor__": 8435,
      "mints__": 8436,
      "minks__": 8437,
      "mingle__": 8438,
      "minimal__": 8439,
      "percep": 8440,
      "perman": 8441,
      "pervert__": 8442,
      "permitted__": 8443,
      "period__": 8444,
      "parent__": 8445,
      "parach": 8446,
      "parties__": 8447,
      "parall": 8448,
      "_epy__": 8449,
      "_eption": 8450,
      "_ependent__": 8451,
      "_ila__": 8452,
      "_ils__": 8453,
      "_ilings__": 8454,
      "_ilton__": 8455,
      "thankful__": 8456,
      "_ioned__": 8457,
      "_ionally__": 8458,
      "wracking__": 8459,
      "wrink": 8460,
      "writers__": 8461,
      "_asive__": 8462,
      "_asies__": 8463,
      "fuzzy__": 8464,
      "Make__": 8465,
      "Male__": 8466,
      "Making__": 8467,
      "Mail__": 8468,
      "Makes__": 8469,
      "Mama__": 8470,
      "Mazel__": 8471,
      "Mahal__": 8472,
      "Madison__": 8473,
      "phones__": 8474,
      "phial__": 8475,
      "phonetically__": 8476,
      "phobia__": 8477,
      "phenomen": 8478,
      "phrase__": 8479,
      "...,__": 8480,
      "......__": 8481,
      ".......__": 8482,
      "........__": 8483,
      "listings__": 8484,
      "listener__": 8485,
      "helper__": 8486,
      "_usive__": 8487,
      "_usion__": 8488,
      "_uscript__": 8489,
      "_enture__": 8490,
      "_entary__": 8491,
      "_entenn": 8492,
      "callin__": 8493,
      "callbacks__": 8494,
      "clown__": 8495,
      "closet__": 8496,
      "closes__": 8497,
      "clogging__": 8498,
      "closer__": 8499,
      "heavy__": 8500,
      "headin__": 8501,
      "meat__": 8502,
      "medd": 8503,
      "metal__": 8504,
      "method__": 8505,
      "_geway__": 8506,
      "_geous__": 8507,
      "_geons__": 8508,
      "Albin": 8509,
      "Alfred": 8510,
      "_amon__": 8511,
      "_ames__": 8512,
      "_amia__": 8513,
      "_erial__": 8514,
      "turning__": 8515,
      "turkeys__": 8516,
      "_ille__": 8517,
      "broiling__": 8518,
      "breaths__": 8519,
      "crash__": 8520,
      "crappy__": 8521,
      "craft": 8522,
      "crawl__": 8523,
      "crawler__": 8524,
      "craziest__": 8525,
      "cramps__": 8526,
      "_oli__": 8527,
      "_orting__": 8528,
      "tongue__": 8529,
      "after": 8530,
      "blushed__": 8531,
      "blouses__": 8532,
      "blueberry__": 8533,
      "blinding__": 8534,
      "blanket__": 8535,
      "bleeding__": 8536,
      "blurtin__": 8537,
      "kiddy__": 8538,
      "kidney__": 8539,
      "slutty__": 8540,
      "Note__": 8541,
      "Nova__": 8542,
      "November__": 8543,
      "Nokul": 8544,
      "bright__": 8545,
      "brook__": 8546,
      "brunch__": 8547,
      "brush__": 8548,
      "bricks__": 8549,
      "brutal__": 8550,
      "_eto__": 8551,
      "_eting__": 8552,
      "_etball__": 8553,
      "_etlight__": 8554,
      "_etarium__": 8555,
      "supportive__": 8556,
      "supporting__": 8557,
      "deaf__": 8558,
      "deals__": 8559,
      "_ounces__": 8560,
      "_ountant__": 8561,
      "elusive__": 8562,
      "stares__": 8563,
      "Anci": 8564,
      "Andrew__": 8565,
      "partly__": 8566,
      "partici": 8567,
      "particular__": 8568,
      "tomorow__": 8569,
      "_veries__": 8570,
      "_verman__": 8571,
      "underpants__": 8572,
      "underneath__": 8573,
      "compare__": 8574,
      "complain__": 8575,
      "companies__": 8576,
      "computers__": 8577,
      "courtside__": 8578,
      "courthouse__": 8579,
      "Become__": 8580,
      "Doe__": 8581,
      "Doing__": 8582,
      "Dots__": 8583,
      "Down__": 8584,
      "Dokey__": 8585,
      "Places__": 8586,
      "Plural__": 8587,
      "math__": 8588,
      "mature__": 8589,
      "matad": 8590,
      "matches__": 8591,
      "matters__": 8592,
      "material__": 8593,
      "smack__": 8594,
      "smock__": 8595,
      "smarter__": 8596,
      "smeared__": 8597,
      "_shi__": 8598,
      "_shake__": 8599,
      "_ships__": 8600,
      "_shores__": 8601,
      "_shield__": 8602,
      "_shisstud": 8603,
      "_mming__": 8604,
      "_mmmm__": 8605,
      "_anced__": 8606,
      "crack__": 8607,
      "crack": 8608,
      "crank__": 8609,
      "crush": 8610,
      "cracks__": 8611,
      "cryst": 8612,
      "dining__": 8613,
      "diner__": 8614,
      "prank__": 8615,
      "printed__": 8616,
      "princi": 8617,
      "pronoun": 8618,
      "sized__": 8619,
      "simple__": 8620,
      "seek__": 8621,
      "seeeeen__": 8622,
      "forgiving__": 8623,
      "picks__": 8624,
      "picturing__": 8625,
      "pictures__": 8626,
      "exposed__": 8627,
      "express__": 8628,
      "expired__": 8629,
      "expense__": 8630,
      "expert__": 8631,
      "explan": 8632,
      "explains__": 8633,
      "Life__": 8634,
      "Lift__": 8635,
      "Lights__": 8636,
      "Lilies__": 8637,
      "Liais": 8638,
      "Limited__": 8639,
      "drying__": 8640,
      "drum__": 8641,
      "drunken__": 8642,
      "flow__": 8643,
      "flood__": 8644,
      "flying__": 8645,
      "flick__": 8646,
      "flush__": 8647,
      "flenn": 8648,
      "flung__": 8649,
      "flattery__": 8650,
      "floopy__": 8651,
      "myth__": 8652,
      "teams__": 8653,
      "teamw": 8654,
      "harm__": 8655,
      "harder__": 8656,
      "hardest__": 8657,
      "hardw": 8658,
      "Janet__": 8659,
      "action__": 8660,
      "acad": 8661,
      "clergy__": 8662,
      "clubbing__": 8663,
      "clunked__": 8664,
      "finding__": 8665,
      "finest__": 8666,
      "fingers__": 8667,
      "finish": 8668,
      "resist__": 8669,
      "reserve__": 8670,
      "resident__": 8671,
      "resume__": 8672,
      "rescue__": 8673,
      "residual__": 8674,
      "resumes__": 8675,
      "_ecial__": 8676,
      "cars__": 8677,
      "carat__": 8678,
      "carried__": 8679,
      "carry": 8680,
      "careers__": 8681,
      "carseat__": 8682,
      "carpet__": 8683,
      "cardboard__": 8684,
      "carbon__": 8685,
      "hangs__": 8686,
      "hanger__": 8687,
      "hangover__": 8688,
      "implem": 8689,
      "impressed__": 8690,
      "implant": 8691,
      "impast": 8692,
      "rub__": 8693,
      "rubs__": 8694,
      "rustic__": 8695,
      "ruined__": 8696,
      "ruptured__": 8697,
      "rubber__": 8698,
      "_mire__": 8699,
      "_missed__": 8700,
      "watched__": 8701,
      "waterfa": 8702,
      "interrup": 8703,
      "intercour": 8704,
      "interfac": 8705,
      "interactive__": 8706,
      "apples__": 8707,
      "appealing__": 8708,
      "applied__": 8709,
      "grabs__": 8710,
      "graham__": 8711,
      "graduation__": 8712,
      "grappa__": 8713,
      "option__": 8714,
      "opens__": 8715,
      "options__": 8716,
      "opinion__": 8717,
      "puke__": 8718,
      "puts__": 8719,
      "_cker__": 8720,
      "_ckles__": 8721,
      "_ckily__": 8722,
      "_ckstra": 8723,
      "_ades__": 8724,
      "_addle__": 8725,
      "_tains__": 8726,
      "_tails__": 8727,
      "bean__": 8728,
      "beats__": 8729,
      "beans__": 8730,
      "singing__": 8731,
      "weekly__": 8732,
      "_quet__": 8733,
      "_quities__": 8734,
      "_quainted__": 8735,
      "_quiris__": 8736,
      "_quetball__": 8737,
      "exclus": 8738,
      "_terly__": 8739,
      "_terberry__": 8740,
      "musici": 8741,
      "musical__": 8742,
      "muscle__": 8743,
      "cans__": 8744,
      "canned__": 8745,
      "giiiii": 8746,
      "differ__": 8747,
      "armadillo__": 8748,
      "arrog": 8749,
      "argum": 8750,
      "arthrit": 8751,
      "artifact__": 8752,
      "dug__": 8753,
      "dues__": 8754,
      "dudes__": 8755,
      "dubbies__": 8756,
      "duchess__": 8757,
      "rec__": 8758,
      "reduc": 8759,
      "reinf": 8760,
      "rebuil": 8761,
      "rethink__": 8762,
      "retiling__": 8763,
      "rod__": 8764,
      "rode__": 8765,
      "rocks__": 8766,
      "roast__": 8767,
      "rolling__": 8768,
      "roller__": 8769,
      "rocked__": 8770,
      "schmoon__": 8771,
      "school": 8772,
      "schools__": 8773,
      "trap__": 8774,
      "trays__": 8775,
      "trading__": 8776,
      "traps__": 8777,
      "trains__": 8778,
      "tramp__": 8779,
      "trapped__": 8780,
      "travel": 8781,
      "trainer__": 8782,
      "travell": 8783,
      "trampled__": 8784,
      "plaid__": 8785,
      "plain__": 8786,
      "player__": 8787,
      "plague__": 8788,
      "Gellers__": 8789,
      "Gellar__": 8790,
      "Having__": 8791,
      "Haven__": 8792,
      "Half__": 8793,
      "Hallow": 8794,
      "Haha__": 8795,
      "Hassidic__": 8796,
      "_udie__": 8797,
      "_udali": 8798,
      "_gnant__": 8799,
      "_via__": 8800,
      "_view__": 8801,
      "_vived__": 8802,
      "_violi__": 8803,
      "cuz__": 8804,
      "cuts__": 8805,
      "cups__": 8806,
      "cubby__": 8807,
      "cupboard__": 8808,
      "curiously__": 8809,
      "cufflin": 8810,
      "hurts__": 8811,
      "hurtin__": 8812,
      "_gged__": 8813,
      "_ggle__": 8814,
      "realised__": 8815,
      "realises__": 8816,
      "realilized__": 8817,
      "planet__": 8818,
      "planner__": 8819,
      "planetarium__": 8820,
      "add__": 8821,
      "adore__": 8822,
      "added__": 8823,
      "adjo": 8824,
      "adju": 8825,
      "admitted__": 8826,
      "admits__": 8827,
      "adorable__": 8828,
      "admire__": 8829,
      "mannequ": 8830,
      "manuver__": 8831,
      "manip": 8832,
      "manuscript__": 8833,
      "pizz": 8834,
      "rap__": 8835,
      "rare__": 8836,
      "rape__": 8837,
      "rainy__": 8838,
      "raining__": 8839,
      "raised__": 8840,
      "razor__": 8841,
      "raquetball__": 8842,
      "ravioli__": 8843,
      "roots__": 8844,
      "rookie__": 8845,
      "release__": 8846,
      "relative__": 8847,
      "reliving__": 8848,
      "relatives__": 8849,
      "sock__": 8850,
      "soir__": 8851,
      "socks__": 8852,
      "soft__": 8853,
      "socket__": 8854,
      "socc": 8855,
      "sofa__": 8856,
      "_racuse__": 8857,
      "_ractive__": 8858,
      "startin__": 8859,
      "showroom__": 8860,
      "understanding__": 8861,
      "understaff": 8862,
      "understands__": 8863,
      "Carl__": 8864,
      "Carin__": 8865,
      "Carav": 8866,
      "Carcass__": 8867,
      "wonerful__": 8868,
      "yourselves__": 8869,
      "_aching__": 8870,
      "_achia__": 8871,
      "insects__": 8872,
      "insign": 8873,
      "insecure__": 8874,
      "Fran__": 8875,
      "Front__": 8876,
      "Front": 8877,
      "Fruit__": 8878,
      "Franzbla": 8879,
      "clap__": 8880,
      "clamed__": 8881,
      "claim__": 8882,
      "clawing__": 8883,
      "claims__": 8884,
      "decent__": 8885,
      "declare__": 8886,
      "handy__": 8887,
      "handing__": 8888,
      "handed__": 8889,
      "handbook__": 8890,
      "handsome__": 8891,
      "handbag__": 8892,
      "handshake__": 8893,
      "needing__": 8894,
      "needles__": 8895,
      "_alities__": 8896,
      "_alopag": 8897,
      "_alachia__": 8898,
      "_ookly": 8899,
      "invest__": 8900,
      "invisible__": 8901,
      "invasive__": 8902,
      "sweets__": 8903,
      "Eva__": 8904,
      "Evil__": 8905,
      "Evander__": 8906,
      "attend__": 8907,
      "attach__": 8908,
      "attacking__": 8909,
      "attorney__": 8910,
      "attacked__": 8911,
      "hearts__": 8912,
      "monger__": 8913,
      "monster__": 8914,
      "monkey__": 8915,
      "monoga": 8916,
      "_vorite__": 8917,
      "_!!!!__": 8918,
      "_!!!!!__": 8919,
      "specified__": 8920,
      "specimen__": 8921,
      "perfect": 8922,
      "Anything__": 8923,
      "Anyone__": 8924,
      "Anywhere__": 8925,
      "Bigot__": 8926,
      "disco": 8927,
      "disrup": 8928,
      "disconnect__": 8929,
      "disarray__": 8930,
      "dismissed__": 8931,
      "touching__": 8932,
      "tourist": 8933,
      "toughest__": 8934,
      "wire__": 8935,
      "wiped__": 8936,
      "wigging__": 8937,
      "_ciously__": 8938,
      "_cials__": 8939,
      "_mbing__": 8940,
      "_ackel__": 8941,
      "chips__": 8942,
      "chipper__": 8943,
      "chimney__": 8944,
      "chiaros": 8945,
      "changing__": 8946,
      "charm__": 8947,
      "charred__": 8948,
      "charisma__": 8949,
      "access__": 8950,
      "according__": 8951,
      "accidentally__": 8952,
      "accountant__": 8953,
      "Ones__": 8954,
      "Once__": 8955,
      "_osex": 8956,
      "_oslavi": 8957,
      "betcha__": 8958,
      "shove__": 8959,
      "shocks__": 8960,
      "shoppin__": 8961,
      "_aurant__": 8962,
      "desire__": 8963,
      "deserves__": 8964,
      "soul__": 8965,
      "souven": 8966,
      "southern__": 8967,
      "tickled__": 8968,
      "_essive__": 8969,
      "_essful__": 8970,
      "_berjack__": 8971,
      "_antle__": 8972,
      "_antage__": 8973,
      "_icient__": 8974,
      "strings__": 8975,
      "stronger__": 8976,
      "strict__": 8977,
      "surrog": 8978,
      "surrounded__": 8979,
      "surgeons__": 8980,
      "survived__": 8981,
      "unbeara": 8982,
      "contest__": 8983,
      "contract__": 8984,
      "contrib": 8985,
      "contraction__": 8986,
      "continue__": 8987,
      "Inappropriate__": 8988,
      "Intense__": 8989,
      "candle__": 8990,
      "candels__": 8991,
      "dumping__": 8992,
      "dumbest__": 8993,
      "horrib": 8994,
      "joked__": 8995,
      "jockstra": 8996,
      "lugga": 8997,
      "ornate__": 8998,
      "orbit__": 8999,
      "organ": 9000,
      "orange__": 9001,
      "offs__": 9002,
      "offer__": 9003,
      "offered__": 9004,
      "officer__": 9005,
      "sending__": 9006,
      "sensing__": 9007,
      "senior__": 9008,
      "term__": 9009,
      "_resso__": 9010,
      "_ression__": 9011,
      "busiest__": 9012,
      "interests__": 9013,
      "interestingly__": 9014,
      "Spoon__": 9015,
      "Sports__": 9016,
      "Sparkly__": 9017,
      "Spindler__": 9018,
      "Special__": 9019,
      "Spackel__": 9020,
      "Until__": 9021,
      "United__": 9022,
      "Underst": 9023,
      "Unagi__": 9024,
      "Uncomfortable__": 9025,
      "Unbound__": 9026,
      "freaks__": 9027,
      "freakish__": 9028,
[...]
